{
  "version": "1.0",
  "truncation": null,
  "padding": null,
  "added_tokens": [
    {
      "id": 0,
      "content": "[UNK]",
      "single_word": false,
      "lstrip": false,
      "rstrip": false,
      "normalized": false,
      "special": true
    },
    {
      "id": 1,
      "content": "[PAD]",
      "single_word": false,
      "lstrip": false,
      "rstrip": false,
      "normalized": false,
      "special": true
    },
    {
      "id": 2,
      "content": "[SOS]",
      "single_word": false,
      "lstrip": false,
      "rstrip": false,
      "normalized": false,
      "special": true
    },
    {
      "id": 3,
      "content": "[EOS]",
      "single_word": false,
      "lstrip": false,
      "rstrip": false,
      "normalized": false,
      "special": true
    }
  ],
  "normalizer": null,
  "pre_tokenizer": {
    "type": "ByteLevel",
    "add_prefix_space": false,
    "trim_offsets": true,
    "use_regex": true
  },
  "post_processor": null,
  "decoder": null,
  "model": {
    "type": "BPE",
    "dropout": null,
    "unk_token": "[UNK]",
    "continuing_subword_prefix": null,
    "end_of_word_suffix": null,
    "fuse_unk": false,
    "byte_fallback": false,
    "vocab": {
      "[UNK]": 0,
      "[PAD]": 1,
      "[SOS]": 2,
      "[EOS]": 3,
      "!": 4,
      "\"": 5,
      "#": 6,
      "$": 7,
      "%": 8,
      "&": 9,
      "'": 10,
      "(": 11,
      ")": 12,
      "*": 13,
      "+": 14,
      ",": 15,
      "-": 16,
      ".": 17,
      "/": 18,
      "0": 19,
      "1": 20,
      "2": 21,
      "3": 22,
      "4": 23,
      "5": 24,
      "6": 25,
      "7": 26,
      "8": 27,
      "9": 28,
      ":": 29,
      ";": 30,
      "<": 31,
      "=": 32,
      ">": 33,
      "?": 34,
      "@": 35,
      "A": 36,
      "B": 37,
      "C": 38,
      "D": 39,
      "E": 40,
      "F": 41,
      "G": 42,
      "H": 43,
      "I": 44,
      "J": 45,
      "K": 46,
      "L": 47,
      "M": 48,
      "N": 49,
      "O": 50,
      "P": 51,
      "Q": 52,
      "R": 53,
      "S": 54,
      "T": 55,
      "U": 56,
      "V": 57,
      "W": 58,
      "X": 59,
      "Y": 60,
      "Z": 61,
      "[": 62,
      "\\": 63,
      "]": 64,
      "^": 65,
      "_": 66,
      "`": 67,
      "a": 68,
      "b": 69,
      "c": 70,
      "d": 71,
      "e": 72,
      "f": 73,
      "g": 74,
      "h": 75,
      "i": 76,
      "j": 77,
      "k": 78,
      "l": 79,
      "m": 80,
      "n": 81,
      "o": 82,
      "p": 83,
      "q": 84,
      "r": 85,
      "s": 86,
      "t": 87,
      "u": 88,
      "v": 89,
      "w": 90,
      "x": 91,
      "y": 92,
      "z": 93,
      "{": 94,
      "|": 95,
      "}": 96,
      "~": 97,
      "¡": 98,
      "¢": 99,
      "£": 100,
      "¤": 101,
      "¥": 102,
      "¦": 103,
      "§": 104,
      "¨": 105,
      "©": 106,
      "ª": 107,
      "«": 108,
      "¬": 109,
      "®": 110,
      "¯": 111,
      "°": 112,
      "±": 113,
      "²": 114,
      "³": 115,
      "´": 116,
      "µ": 117,
      "¶": 118,
      "·": 119,
      "¸": 120,
      "¹": 121,
      "º": 122,
      "»": 123,
      "¼": 124,
      "½": 125,
      "¾": 126,
      "¿": 127,
      "Â": 128,
      "Ã": 129,
      "Ä": 130,
      "Å": 131,
      "Æ": 132,
      "Ç": 133,
      "È": 134,
      "É": 135,
      "Ê": 136,
      "Ë": 137,
      "Ì": 138,
      "Í": 139,
      "Î": 140,
      "Ï": 141,
      "Ð": 142,
      "Ñ": 143,
      "Ò": 144,
      "×": 145,
      "Ø": 146,
      "Ù": 147,
      "à": 148,
      "á": 149,
      "â": 150,
      "ã": 151,
      "ä": 152,
      "å": 153,
      "æ": 154,
      "ç": 155,
      "è": 156,
      "é": 157,
      "ê": 158,
      "ë": 159,
      "ì": 160,
      "í": 161,
      "ï": 162,
      "ð": 163,
      "Ă": 164,
      "ă": 165,
      "ĉ": 166,
      "Ċ": 167,
      "č": 168,
      "ě": 169,
      "ğ": 170,
      "Ġ": 171,
      "Ģ": 172,
      "ģ": 173,
      "Ĥ": 174,
      "ĥ": 175,
      "Ħ": 176,
      "ħ": 177,
      "Ĩ": 178,
      "ĩ": 179,
      "Ī": 180,
      "ī": 181,
      "Ĭ": 182,
      "ĭ": 183,
      "Į": 184,
      "į": 185,
      "İ": 186,
      "ı": 187,
      "Ĳ": 188,
      "ĳ": 189,
      "Ĵ": 190,
      "ĵ": 191,
      "Ķ": 192,
      "ķ": 193,
      "ĸ": 194,
      "Ĺ": 195,
      "ĺ": 196,
      "Ļ": 197,
      "ļ": 198,
      "Ľ": 199,
      "ľ": 200,
      "Ŀ": 201,
      "ŀ": 202,
      "Ł": 203,
      "ł": 204,
      "Ń": 205,
      "ĠĠ": 206,
      "ĠĠĠĠ": 207,
      "ĠĠĠ": 208,
      "ĊĠĠĠĠ": 209,
      "in": 210,
      "Ġt": 211,
      "re": 212,
      "ĊĠĠĠĠĠĠĠ": 213,
      "se": 214,
      "on": 215,
      "at": 216,
      "er": 217,
      "ĊĠĠĠĠĠĠĠĠ": 218,
      "Ġa": 219,
      "or": 220,
      "st": 221,
      "he": 222,
      "ĊĠĠĠ": 223,
      "en": 224,
      "Ġi": 225,
      "Ġf": 226,
      "de": 227,
      "le": 228,
      "ar": 229,
      "Ġc": 230,
      "al": 231,
      "me": 232,
      "Ġthe": 233,
      "Ġ=": 234,
      "ion": 235,
      "ĠĠĠĠĠĠĠĠ": 236,
      "ĊĠĠĠĠĠĠĠĠĠĠĠ": 237,
      "Ġre": 238,
      "Ġo": 239,
      "\"\"": 240,
      "ur": 241,
      "Ġp": 242,
      "ct": 243,
      "Ġin": 244,
      "Ġn": 245,
      "it": 246,
      "an": 247,
      "ce": 248,
      "Ġs": 249,
      "--": 250,
      "Ġse": 251,
      "lf": 252,
      "ro": 253,
      "ing": 254,
      "Ġb": 255,
      "et": 256,
      "ame": 257,
      "Ġd": 258,
      "Ġe": 259,
      "Ġw": 260,
      "ut": 261,
      "Ġto": 262,
      "urn": 263,
      "ue": 264,
      "ent": 265,
      "lo": 266,
      "ed": 267,
      "Ġif": 268,
      "li": 269,
      "pe": 270,
      "):": 271,
      "ss": 272,
      "Ġ:": 273,
      "Ġm": 274,
      "Ġof": 275,
      "un": 276,
      "ĊĊĠĠĠĠĠĠĠ": 277,
      "Ġ'": 278,
      "\"\"\"": 279,
      "Ġself": 280,
      "fi": 281,
      "ra": 282,
      "ĠĠĠĠĠĠĠ": 283,
      "ot": 284,
      "Ġfor": 285,
      "turn": 286,
      "es": 287,
      "Ġan": 288,
      "am": 289,
      "Ġis": 290,
      "ĊĊĠĠĠ": 291,
      "Ġ\"\"\"": 292,
      "def": 293,
      "id": 294,
      "ul": 295,
      "Ġst": 296,
      "Ġv": 297,
      "ĊĠĠĠĠĠĠĠĠĠĠĠĠĠĠĠ": 298,
      "ate": 299,
      "Ġreturn": 300,
      "ad": 301,
      "pt": 302,
      "ĠT": 303,
      "ĊĠĠĠĠĠĠĠĠĠĠĠĠĠĠĠĠ": 304,
      "co": 305,
      "il": 306,
      "um": 307,
      "ch": 308,
      "Ġ(": 309,
      "is": 310,
      "one": 311,
      "ata": 312,
      "la": 313,
      "ter": 314,
      "ri": 315,
      "ype": 316,
      "ck": 317,
      "Ġ#": 318,
      "----": 319,
      "ag": 320,
      "Ġg": 321,
      "par": 322,
      "ation": 323,
      "Ġco": 324,
      "self": 325,
      "alue": 326,
      "Ġand": 327,
      "ke": 328,
      "Ġcon": 329,
      "Ġth": 330,
      "name": 331,
      "th": 332,
      "None": 333,
      "ction": 334,
      "el": 335,
      "up": 336,
      "()": 337,
      "as": 338,
      "ex": 339,
      "di": 340,
      "Ġnot": 341,
      "mp": 342,
      "``": 343,
      "ult": 344,
      "ath": 345,
      "Ġbe": 346,
      "Ġex": 347,
      "ĠA": 348,
      "Ġfi": 349,
      "ect": 350,
      "Ġh": 351,
      "Ġ\"": 352,
      "gs": 353,
      "param": 354,
      "._": 355,
      "ble": 356,
      "Ġor": 357,
      "type": 358,
      "list": 359,
      "ver": 360,
      "ol": 361,
      "use": 362,
      "ith": 363,
      "ve": 364,
      "get": 365,
      "ĠI": 366,
      "key": 367,
      "ror": 368,
      "',": 369,
      "ĠR": 370,
      "Ġl": 371,
      "bj": 372,
      "ode": 373,
      "ap": 374,
      "Ġdi": 375,
      "age": 376,
      "con": 377,
      "Ġstr": 378,
      "rom": 379,
      "ption": 380,
      "))": 381,
      "ime": 382,
      "orm": 383,
      "Ġde": 384,
      "('": 385,
      "and": 386,
      "end": 387,
      ">>": 388,
      "od": 389,
      "int": 390,
      "Ġme": 391,
      "qu": 392,
      "able": 393,
      "ment": 394,
      "ĠNone": 395,
      "nt": 396,
      "ly": 397,
      "Ġres": 398,
      "ort": 399,
      "to": 400,
      "Ġvalue": 401,
      "['": 402,
      "Ġdata": 403,
      "Ġlo": 404,
      "Ġwith": 405,
      "iz": 406,
      "']": 407,
      "ig": 408,
      "ĠS": 409,
      "ĠThe": 410,
      "te": 411,
      "Ġas": 412,
      "ise": 413,
      "ext": 414,
      "Ġname": 415,
      "Ġuse": 416,
      "Ġal": 417,
      "res": 418,
      "str": 419,
      "Ġ1": 420,
      "Ġpro": 421,
      "eturn": 422,
      "Ġfile": 423,
      "Ġfrom": 424,
      "Ġ-": 425,
      "ĠC": 426,
      "Ġar": 427,
      "ĠP": 428,
      "ers": 429,
      "path": 430,
      "vi": 431,
      "ance": 432,
      "form": 433,
      "bject": 434,
      "Ġ_": 435,
      "Ġ[": 436,
      "us": 437,
      "Ġlist": 438,
      "set": 439,
      "Ġ*": 440,
      "')": 441,
      "Ġr": 442,
      "ĊĠĠĠĠĠĠĠĠĠĠĠĠĠĠĠĠĠĠĠ": 443,
      "Ġpar": 444,
      "ĊĠĠĠĠĠĠĠĠĠĠĠĠĠĠĠĠĠĠĠĠĠĠĠĠ": 445,
      "Ġ+": 446,
      "que": 447,
      "file": 448,
      "put": 449,
      "Ġ{": 450,
      "rror": 451,
      "ci": 452,
      "Error": 453,
      "ase": 454,
      "ord": 455,
      "rue": 456,
      "ta": 457,
      "ist": 458,
      "Ġon": 459,
      "ĠF": 460,
      "po": 461,
      "ma": 462,
      "':": 463,
      "args": 464,
      "Ġ``": 465,
      "Ġ0": 466,
      "ic": 467,
      "ry": 468,
      "ub": 469,
      "ine": 470,
      "Ġ`": 471,
      "Ġthat": 472,
      "che": 473,
      "Ġel": 474,
      "ew": 475,
      "data": 476,
      "per": 477,
      "red": 478,
      "Ġelse": 479,
      "stance": 480,
      "ault": 481,
      "ack": 482,
      "iv": 483,
      "Ġra": 484,
      "..": 485,
      "(\"": 486,
      "all": 487,
      "Ġ%": 488,
      "ow": 489,
      "fig": 490,
      "Ġdef": 491,
      "ite": 492,
      "out": 493,
      "Ġkey": 494,
      "eturns": 495,
      "ĠD": 496,
      "Ġthis": 497,
      "ill": 498,
      "ge": 499,
      "our": 500,
      "ser": 501,
      "Ġit": 502,
      "ray": 503,
      "amp": 504,
      "quest": 505,
      "Ġ==": 506,
      "att": 507,
      "ize": 508,
      "eld": 509,
      "pro": 510,
      "alse": 511,
      "ameter": 512,
      "Ġobject": 513,
      "Ġby": 514,
      "ure": 515,
      "fo": 516,
      "art": 517,
      "app": 518,
      "py": 519,
      "lass": 520,
      "Ġch": 521,
      "rent": 522,
      "Ġraise": 523,
      "im": 524,
      "Ġare": 525,
      "ĠE": 526,
      "unt": 527,
      "Ġma": 528,
      "Ġset": 529,
      "value": 530,
      "unction": 531,
      "ĠIf": 532,
      "Ġ>>": 533,
      "ĠN": 534,
      "),": 535,
      "ource": 536,
      "ran": 537,
      "ms": 538,
      "Ġ>>>": 539,
      "dex": 540,
      "Ġwill": 541,
      "Ġstring": 542,
      "pa": 543,
      "Ġy": 544,
      "Ġ----": 545,
      "ĊĠĠĠĠĠ": 546,
      "ĠReturns": 547,
      "hi": 548,
      "ated": 549,
      "ded": 550,
      "\",": 551,
      "und": 552,
      "Ġnum": 553,
      "cess": 554,
      "ary": 555,
      "Ġout": 556,
      "dd": 557,
      "ht": 558,
      "pon": 559,
      "Ġpo": 560,
      "val": 561,
      "ho": 562,
      "ff": 563,
      "ust": 564,
      "kw": 565,
      "ind": 566,
      "Ġ2": 567,
      "format": 568,
      "Ġget": 569,
      "ument": 570,
      "mm": 571,
      "Ġdo": 572,
      "ber": 573,
      "ition": 574,
      "pre": 575,
      "Ġall": 576,
      "00": 577,
      "atch": 578,
      "ample": 579,
      "sc": 580,
      "Ġcont": 581,
      "return": 582,
      "Ġen": 583,
      "thod": 584,
      "odel": 585,
      "Ġlog": 586,
      "Ġtime": 587,
      "mo": 588,
      "error": 589,
      "ive": 590,
      "ity": 591,
      "url": 592,
      "ĠĠĠĠĠĠĠĠĠĠĠĠĠĠĠĠ": 593,
      "ory": 594,
      "Ġspe": 595,
      "ces": 596,
      "kwargs": 597,
      "ĠM": 598,
      "Ġpath": 599,
      "iven": 600,
      "ha": 601,
      "Ġresult": 602,
      "Ġfunction": 603,
      "Ġnew": 604,
      "low": 605,
      "Ġpa": 606,
      "cl": 607,
      "code": 608,
      "ug": 609,
      "Ġtype": 610,
      "ameters": 611,
      "Ġcol": 612,
      "ĠTrue": 613,
      "pp": 614,
      "Ġlen": 615,
      "Ġexce": 616,
      "Ġx": 617,
      "Ġun": 618,
      "jo": 619,
      "\")": 620,
      "Ġro": 621,
      "ute": 622,
      "Ġpre": 623,
      "rib": 624,
      "])": 625,
      "ĠO": 626,
      "bo": 627,
      "ssion": 628,
      "ĠU": 629,
      "Ġwe": 630,
      "ponse": 631,
      "Ġgiven": 632,
      "der": 633,
      "ule": 634,
      "ens": 635,
      "lement": 636,
      "his": 637,
      "ĊĠ": 638,
      "Ġhe": 639,
      "om": 640,
      "len": 641,
      "ates": 642,
      "ĊĊĠĠĠĠĠĠĠĠĠĠĠ": 643,
      "read": 644,
      "port": 645,
      "Ġwhi": 646,
      "Ġoption": 647,
      "Ġwhe": 648,
      "Ġint": 649,
      ":`": 650,
      "date": 651,
      "],": 652,
      "tain": 653,
      "==": 654,
      "ĠV": 655,
      "ator": 656,
      "ign": 657,
      "ip": 658,
      "vent": 659,
      "Ġspeci": 660,
      "''": 661,
      "Ġdefault": 662,
      "ĠL": 663,
      "ssage": 664,
      ").": 665,
      "ork": 666,
      "add": 667,
      "ari": 668,
      "rect": 669,
      "Ġmethod": 670,
      "roup": 671,
      "Ġrequest": 672,
      "time": 673,
      "col": 674,
      "ger": 675,
      "reate": 676,
      "cation": 677,
      "act": 678,
      "Ġcomp": 679,
      "class": 680,
      "ther": 681,
      "rans": 682,
      "Ġbo": 683,
      "pl": 684,
      "dict": 685,
      "ery": 686,
      "ave": 687,
      "ĠAr": 688,
      "gument": 689,
      "Ġla": 690,
      "ĠThis": 691,
      "Ġuser": 692,
      "Ġdict": 693,
      "ĠG": 694,
      "ile": 695,
      "heck": 696,
      "op": 697,
      "urrent": 698,
      "Ġcan": 699,
      "instance": 700,
      "append": 701,
      "Re": 702,
      "ca": 703,
      "Ġid": 704,
      "rint": 705,
      "ĠW": 706,
      "ild": 707,
      "lock": 708,
      "Ġtry": 709,
      "Ġ..": 710,
      "ant": 711,
      "ĊĠĠĠĠĠĠĠĠĠĠĠĠĠĠĠĠĠĠĠĠĠĠĠ": 712,
      "vice": 713,
      "__": 714,
      "ener": 715,
      "uld": 716,
      "ĠFalse": 717,
      "ore": 718,
      "Ġ**": 719,
      "fe": 720,
      "dir": 721,
      "text": 722,
      "ask": 723,
      "ok": 724,
      "rap": 725,
      "Ġup": 726,
      "sed": 727,
      "Ġadd": 728,
      "ren": 729,
      "Ġconfig": 730,
      "loat": 731,
      "Ġexcept": 732,
      "ial": 733,
      "Ġ--------": 734,
      "Ġat": 735,
      "ies": 736,
      "load": 737,
      "log": 738,
      "Ġhas": 739,
      "ne": 740,
      "Ġvalues": 741,
      "ĠB": 742,
      "Ġform": 743,
      "Ġfil": 744,
      "lif": 745,
      "ang": 746,
      "Ġimp": 747,
      "Ġ<": 748,
      "ir": 749,
      "Ġspecifi": 750,
      "In": 751,
      "ys": 752,
      "umn": 753,
      "Ġqu": 754,
      "bel": 755,
      "lient": 756,
      "mmand": 757,
      "Ġsub": 758,
      "Ġwhich": 759,
      "pla": 760,
      "Ġnp": 761,
      "ĠPar": 762,
      "True": 763,
      "info": 764,
      "\":": 765,
      "attr": 766,
      "Ġle": 767,
      "Ġused": 768,
      "='": 769,
      "ĠEx": 770,
      "Ġelif": 771,
      "Ġnode": 772,
      "array": 773,
      "Ġ{}": 774,
      "Ċĉ": 775,
      "ps": 776,
      "Ġ'''": 777,
      "min": 778,
      "Ġcontain": 779,
      "Ġte": 780,
      "js": 781,
      "ĠArgs": 782,
      "'.": 783,
      "Con": 784,
      "ach": 785,
      "Ġval": 786,
      "ste": 787,
      "Ġinstance": 788,
      "Ġnumber": 789,
      "ifi": 790,
      "Ġoutput": 791,
      "cal": 792,
      "Ġarray": 793,
      "os": 794,
      "Ġ)": 795,
      "arget": 796,
      "Ġne": 797,
      "ange": 798,
      "ĠĠĠĠĠ": 799,
      "tra": 800,
      "word": 801,
      "Ġfield": 802,
      "Ġk": 803,
      "Ġso": 804,
      "ec": 805,
      "'s": 806,
      "size": 807,
      "config": 808,
      "Ġos": 809,
      "hape": 810,
      "ĠH": 811,
      "ard": 812,
      "odule": 813,
      "string": 814,
      "rite": 815,
      "json": 816,
      "num": 817,
      "uple": 818,
      "Ġisinstance": 819,
      "False": 820,
      "Ġser": 821,
      "ĠParameters": 822,
      "Ġac": 823,
      "ail": 824,
      ".\"\"\"": 825,
      "Ġline": 826,
      "Ġerror": 827,
      "rame": 828,
      "if": 829,
      "Ġ|": 830,
      "Ġcall": 831,
      "ress": 832,
      "tem": 833,
      "Ġ3": 834,
      "do": 835,
      "gth": 836,
      "atus": 837,
      "line": 838,
      "ON": 839,
      "unc": 840,
      "Ġret": 841,
      "own": 842,
      "ken": 843,
      "Ġcurrent": 844,
      "count": 845,
      "Ġli": 846,
      "pi": 847,
      "Ġ----------": 848,
      "join": 849,
      "Ġresponse": 850,
      "nd": 851,
      "start": 852,
      "base": 853,
      "uct": 854,
      "Ġmodel": 855,
      "back": 856,
      "tt": 857,
      "index": 858,
      "Ġinput": 859,
      "vert": 860,
      "():": 861,
      "Ġapp": 862,
      "Ġone": 863,
      "ception": 864,
      "sh": 865,
      "plit": 866,
      "mit": 867,
      "Ġprint": 868,
      "ight": 869,
      "Ġargument": 870,
      "ĊĠĠĠĠĠĠĠĠĠ": 871,
      "ĠIn": 872,
      "hould": 873,
      "Ġstart": 874,
      "Ġindex": 875,
      "ll": 876,
      "Ġno": 877,
      "attrib": 878,
      "cord": 879,
      "vers": 880,
      "ER": 881,
      "ence": 882,
      "Ġ>": 883,
      "ations": 884,
      "Ġim": 885,
      "rst": 886,
      "etw": 887,
      "so": 888,
      "ree": 889,
      "sent": 890,
      "Ġoptional": 891,
      "ersion": 892,
      "not": 893,
      "fix": 894,
      "[\"": 895,
      "Ġcheck": 896,
      "ude": 897,
      "mb": 898,
      "ader": 899,
      "tern": 900,
      "uth": 901,
      "arch": 902,
      "ab": 903,
      "comp": 904,
      "Ġ[]": 905,
      "ĠĠĠĠĠĠ": 906,
      "ound": 907,
      "Ġ@": 908,
      "ariable": 909,
      "Ġreg": 910,
      "Ġmessage": 911,
      "obj": 912,
      "og": 913,
      "ings": 914,
      "Ġcode": 915,
      "Ġeach": 916,
      "node": 917,
      "ĠValue": 918,
      ".__": 919,
      "qui": 920,
      "Ġper": 921,
      "Ġspecified": 922,
      "ml": 923,
      "Ġshould": 924,
      "Ġimport": 925,
      "lic": 926,
      "led": 927,
      "scri": 928,
      "vel": 929,
      "Ġbase": 930,
      "::": 931,
      "Ex": 932,
      "Ġfloat": 933,
      "Ġmax": 934,
      "cs": 935,
      "Ġonly": 936,
      "valid": 937,
      "Ġ\\": 938,
      "lot": 939,
      "point": 940,
      "Ġend": 941,
      "ink": 942,
      "Ġus": 943,
      "ĊĠĠĠĠĠĠĠĠĠĠĠĠĠĠĠĠĠĠĠĠĠĠĠĠĠĠĠĠĠĠĠĠ": 944,
      "ding": 945,
      "ef": 946,
      "Ġent": 947,
      "Ġinto": 948,
      "Ġcal": 949,
      "user": 950,
      "St": 951,
      "Ġsu": 952,
      "Ġexist": 953,
      "ull": 954,
      "ay": 955,
      "ds": 956,
      "ctionary": 957,
      "mpl": 958,
      "Ġ+=": 959,
      "Ġany": 960,
      "cur": 961,
      "ses": 962,
      "\".": 963,
      "Ġversion": 964,
      "Ġdirect": 965,
      "Ġhave": 966,
      "raph": 967,
      "pace": 968,
      "by": 969,
      "bug": 970,
      "Ġvalid": 971,
      "Ġstate": 972,
      "default": 973,
      "Ġmust": 974,
      "Get": 975,
      "Ġtrans": 976,
      "ĠValueError": 977,
      "---": 978,
      "ical": 979,
      "Ġother": 980,
      "\"]": 981,
      "ak": 982,
      "ost": 983,
      "Ġpass": 984,
      "ual": 985,
      "Ġbu": 986,
      "move": 987,
      "ep": 988,
      "lete": 989,
      "lect": 990,
      "IN": 991,
      "Ġz": 992,
      "fa": 993,
      "ream": 994,
      "Ġmat": 995,
      "Ġdis": 996,
      "Ġtext": 997,
      "Ġclass": 998,
      "Ġevent": 999,
      "Ġrun": 1000,
      "Ġ/": 1001,
      "ages": 1002,
      "ĠRe": 1003,
      "ines": 1004,
      "sert": 1005,
      "ST": 1006,
      "field": 1007,
      "ac": 1008,
      "thon": 1009,
      "Ġcolumn": 1010,
      "Ġformat": 1011,
      "Ġargs": 1012,
      "Ġinter": 1013,
      "yn": 1014,
      "ote": 1015,
      "ron": 1016,
      "Ġwhen": 1017,
      "nection": 1018,
      "rtype": 1019,
      "pect": 1020,
      "ature": 1021,
      "ning": 1022,
      "pos": 1023,
      "Ġurl": 1024,
      "ou": 1025,
      "Return": 1026,
      "ject": 1027,
      "([": 1028,
      "Ġelement": 1029,
      "Ġbool": 1030,
      "nel": 1031,
      "pen": 1032,
      "AT": 1033,
      "let": 1034,
      "max": 1035,
      "ĊĠĠĠĠĠĠĠĠĠĠĠĠĠĠĠĠĠĠĠĠĠĠĠĠĠĠĠĠĠĠĠĠĠĠĠĠĠĠĠĠ": 1036,
      "bu": 1037,
      "iter": 1038,
      "its": 1039,
      "request": 1040,
      "Ġnames": 1041,
      "Ġcommand": 1042,
      "sub": 1043,
      "group": 1044,
      "Ġca": 1045,
      "option": 1046,
      "Ġquery": 1047,
      "pert": 1048,
      "model": 1049,
      "**": 1050,
      "ft": 1051,
      "Ġmatch": 1052,
      "].": 1053,
      "ler": 1054,
      "Ġread": 1055,
      "from": 1056,
      "ension": 1057,
      "Ġ-------": 1058,
      "version": 1059,
      "feren": 1060,
      "for": 1061,
      "Ġfiles": 1062,
      "Ġtuple": 1063,
      "reg": 1064,
      "split": 1065,
      "--------": 1066,
      "Ġover": 1067,
      "ename": 1068,
      "Ġsup": 1069,
      "Ġpart": 1070,
      "Ġdictionary": 1071,
      "place": 1072,
      "Ġattrib": 1073,
      "Ġfirst": 1074,
      "Ġparam": 1075,
      "'t": 1076,
      "result": 1077,
      "Ġpy": 1078,
      "====": 1079,
      "inal": 1080,
      "md": 1081,
      "map": 1082,
      "wa": 1083,
      "uration": 1084,
      "state": 1085,
      "Ġcl": 1086,
      "object": 1087,
      "Ġtarget": 1088,
      "row": 1089,
      "Ġ...": 1090,
      "alt": 1091,
      "Ġsource": 1092,
      "RE": 1093,
      "{}": 1094,
      "Ġ!": 1095,
      "Ġitem": 1096,
      "Ġgener": 1097,
      "ax": 1098,
      "ries": 1099,
      "Ġcor": 1100,
      "Ġkwargs": 1101,
      "`.": 1102,
      "ils": 1103,
      "ors": 1104,
      "adata": 1105,
      "names": 1106,
      "ments": 1107,
      "ield": 1108,
      "Ġhand": 1109,
      "cket": 1110,
      "ched": 1111,
      "Ġgroup": 1112,
      "amples": 1113,
      "cont": 1114,
      "ents": 1115,
      "Ġ!=": 1116,
      "tes": 1117,
      "Ġj": 1118,
      "params": 1119,
      "mplate": 1120,
      "Ġusing": 1121,
      "bs": 1122,
      "Ġax": 1123,
      "Ġrow": 1124,
      "ises": 1125,
      "Ġmin": 1126,
      "Ġtable": 1127,
      "clude": 1128,
      "debug": 1129,
      "values": 1130,
      "met": 1131,
      "())": 1132,
      "action": 1133,
      "Ke": 1134,
      "ution": 1135,
      "items": 1136,
      "utes": 1137,
      "Ġ4": 1138,
      "com": 1139,
      "Ġsy": 1140,
      "Ġ}": 1141,
      "write": 1142,
      "ĠJ": 1143,
      "aders": 1144,
      "PI": 1145,
      "block": 1146,
      "Ġpoint": 1147,
      "Ġsh": 1148,
      "si": 1149,
      "Ġreturns": 1150,
      "Co": 1151,
      "//": 1152,
      "etime": 1153,
      "Ġimage": 1154,
      "Ġass": 1155,
      "Ġtra": 1156,
      "ved": 1157,
      "lean": 1158,
      "Ġfilename": 1159,
      "func": 1160,
      "lection": 1161,
      "cre": 1162,
      "Ġdoes": 1163,
      "Ġmodule": 1164,
      "Ġfound": 1165,
      "present": 1166,
      "Ġrange": 1167,
      "update": 1168,
      "Ġthen": 1169,
      "Ġsize": 1170,
      "da": 1171,
      "rix": 1172,
      "main": 1173,
      "01": 1174,
      "atetime": 1175,
      "Ġmet": 1176,
      "ns": 1177,
      "Ġvariable": 1178,
      "pts": 1179,
      "ĠCon": 1180,
      "ong": 1181,
      "nect": 1182,
      "her": 1183,
      "mi": 1184,
      "Ġwork": 1185,
      "Ġprovi": 1186,
      "Ġiter": 1187,
      "Ġreturned": 1188,
      "lib": 1189,
      "rig": 1190,
      "Ġdoc": 1191,
      "ain": 1192,
      "Ġarguments": 1193,
      "Ġlabel": 1194,
      "itial": 1195,
      "run": 1196,
      "annel": 1197,
      "quence": 1198,
      "://": 1199,
      "stem": 1200,
      "gn": 1201,
      "Ġmo": 1202,
      "Ġtag": 1203,
      "Ġpos": 1204,
      "ĠSe": 1205,
      "ash": 1206,
      "ative": 1207,
      "Ġbut": 1208,
      "ast": 1209,
      "Par": 1210,
      "label": 1211,
      "=\"": 1212,
      "Key": 1213,
      "ark": 1214,
      "Ġlogger": 1215,
      "with": 1216,
      "Ġcreate": 1217,
      "inter": 1218,
      "Type": 1219,
      "filen": 1220,
      "Ġdirectory": 1221,
      "Data": 1222,
      "Ġyou": 1223,
      "Returns": 1224,
      "ference": 1225,
      "ID": 1226,
      "ĊĠĠĠĠĠĠĠĠĠĠĠĠĠĠĠĠĠĠĠĠĠĠĠĠĠĠĠ": 1227,
      "parse": 1228,
      "Ġpl": 1229,
      "etwork": 1230,
      "lob": 1231,
      "Ġresource": 1232,
      "Ġfilter": 1233,
      "lay": 1234,
      "Ġcontext": 1235,
      "Ġsign": 1236,
      "keys": 1237,
      "fil": 1238,
      "shape": 1239,
      "filename": 1240,
      "ert": 1241,
      "ref": 1242,
      "api": 1243,
      "ized": 1244,
      "##": 1245,
      "Ġclient": 1246,
      "LE": 1247,
      "Ġrepresent": 1248,
      "čĊĠĠĠĠĠĠĠ": 1249,
      "Set": 1250,
      "ME": 1251,
      "Ġparameters": 1252,
      "ume": 1253,
      "scription": 1254,
      "Ġparameter": 1255,
      "Ġ{'": 1256,
      "formation": 1257,
      "ures": 1258,
      "efault": 1259,
      "ingle": 1260,
      "'):": 1261,
      "arg": 1262,
      "-+": 1263,
      "df": 1264,
      "Ġcre": 1265,
      "ormal": 1266,
      "gra": 1267,
      "idth": 1268,
      "Ġsame": 1269,
      "ix": 1270,
      "job": 1271,
      "ĠX": 1272,
      "ĠID": 1273,
      "Ġu": 1274,
      "cy": 1275,
      "Ġrequi": 1276,
      "rid": 1277,
      "Ġopen": 1278,
      "Ġparams": 1279,
      "sum": 1280,
      "ches": 1281,
      "types": 1282,
      "call": 1283,
      "Ġdefin": 1284,
      "Ġwas": 1285,
      "Ġlength": 1286,
      "Ġindi": 1287,
      "Ċĉĉ": 1288,
      "ĊĊĠ": 1289,
      "returns": 1290,
      "Pro": 1291,
      "cul": 1292,
      "status": 1293,
      "Ġav": 1294,
      "itle": 1295,
      "hand": 1296,
      "Ġwhere": 1297,
      "Ġorder": 1298,
      "wise": 1299,
      "spe": 1300,
      "Ġpack": 1301,
      "clo": 1302,
      "part": 1303,
      "pend": 1304,
      "Ġfe": 1305,
      "ĠAn": 1306,
      "Ġserver": 1307,
      "Ġuni": 1308,
      "ating": 1309,
      "tings": 1310,
      "ging": 1311,
      "Ġresults": 1312,
      "Ġact": 1313,
      "client": 1314,
      "Ġblock": 1315,
      "OR": 1316,
      "tag": 1317,
      "Ġprocess": 1318,
      "rip": 1319,
      "Ġcontent": 1320,
      "Ġfol": 1321,
      "[:": 1322,
      "ody": 1323,
      "iled": 1324,
      "Ġoper": 1325,
      "Ġad": 1326,
      "chema": 1327,
      "ous": 1328,
      "``.": 1329,
      "check": 1330,
      "'],": 1331,
      "Ġobj": 1332,
      "fore": 1333,
      "query": 1334,
      "mpt": 1335,
      "ĠSt": 1336,
      "we": 1337,
      "Ġrecord": 1338,
      "ible": 1339,
      "item": 1340,
      "message": 1341,
      "filter": 1342,
      "andom": 1343,
      "entifi": 1344,
      "sg": 1345,
      "ins": 1346,
      "new": 1347,
      "-+-+": 1348,
      "Ġ->": 1349,
      "process": 1350,
      "core": 1351,
      "Ġcontaining": 1352,
      "cor": 1353,
      "rial": 1354,
      "output": 1355,
      "les": 1356,
      "DE": 1357,
      "Name": 1358,
      "Ġhost": 1359,
      "table": 1360,
      "ud": 1361,
      "ell": 1362,
      "imum": 1363,
      "Ġpas": 1364,
      "Id": 1365,
      "ids": 1366,
      "Se": 1367,
      "ready": 1368,
      "ĊĠĠĠĠĠĠĠĠĠĠ": 1369,
      "host": 1370,
      "Ġkeys": 1371,
      "Ġvi": 1372,
      "av": 1373,
      "mpty": 1374,
      "Ġprovided": 1375,
      "source": 1376,
      "fter": 1377,
      "Ġtoken": 1378,
      "Ġback": 1379,
      "unk": 1380,
      "np": 1381,
      "trans": 1382,
      "Ġmult": 1383,
      "Ġ--": 1384,
      "RL": 1385,
      "token": 1386,
      "old": 1387,
      "input": 1388,
      "ccess": 1389,
      "Ġobjects": 1390,
      "Ġsort": 1391,
      "ization": 1392,
      "Res": 1393,
      "Ġtask": 1394,
      "event": 1395,
      "Ġrel": 1396,
      "Ġjson": 1397,
      "response": 1398,
      "Ġcount": 1399,
      "be": 1400,
      "Ġtw": 1401,
      "imp": 1402,
      "().": 1403,
      "Ġext": 1404,
      "Ġsc": 1405,
      "ĠDefault": 1406,
      "Ġcase": 1407,
      "Ġ5": 1408,
      "Ġpassed": 1409,
      "`,": 1410,
      "viron": 1411,
      "face": 1412,
      "Ġoptions": 1413,
      "queue": 1414,
      "Ġits": 1415,
      "Ġchar": 1416,
      "Ġsingle": 1417,
      "pack": 1418,
      "indow": 1419,
      "Ġstatus": 1420,
      "db": 1421,
      "files": 1422,
      "Ġcontin": 1423,
      "attern": 1424,
      "io": 1425,
      "Ġextra": 1426,
      "((": 1427,
      "Ġinformation": 1428,
      "Ġpri": 1429,
      "raw": 1430,
      "ify": 1431,
      "ailable": 1432,
      "Ġsecon": 1433,
      "rit": 1434,
      "Ġaut": 1435,
      "Ġshape": 1436,
      "float": 1437,
      "rc": 1438,
      "mat": 1439,
      "struct": 1440,
      "'])": 1441,
      "module": 1442,
      "cent": 1443,
      "Ġlast": 1444,
      "Ġpropert": 1445,
      "Ġhtt": 1446,
      "AL": 1447,
      "Ġoff": 1448,
      "off": 1449,
      "var": 1450,
      "cls": 1451,
      "Ġparent": 1452,
      "dis": 1453,
      "sy": 1454,
      "Ġservice": 1455,
      "Ġinte": 1456,
      "length": 1457,
      "ats": 1458,
      "Ġexception": 1459,
      "Ġag": 1460,
      "Ġupdate": 1461,
      "Ġneed": 1462,
      "msg": 1463,
      "Ġdiff": 1464,
      "like": 1465,
      "Ġsession": 1466,
      "Ġallow": 1467,
      "ĠRa": 1468,
      "Ar": 1469,
      "Ġalready": 1470,
      "(),": 1471,
      "AR": 1472,
      "Ġconnection": 1473,
      "create": 1474,
      "Ġattribute": 1475,
      "Ġmore": 1476,
      "cate": 1477,
      "Ġman": 1478,
      "amb": 1479,
      "Ġport": 1480,
      "Ġtimeout": 1481,
      "Add": 1482,
      "Ġmsg": 1483,
      "utils": 1484,
      "Ġconfiguration": 1485,
      "Ġthere": 1486,
      "Ġaction": 1487,
      "method": 1488,
      "play": 1489,
      "ld": 1490,
      "no": 1491,
      "Ġnumpy": 1492,
      "Ġenco": 1493,
      "ner": 1494,
      "Ġcontinue": 1495,
      "ĠFor": 1496,
      "context": 1497,
      "rie": 1498,
      "Ġsalt": 1499,
      "Ġcur": 1500,
      "Ġthan": 1501,
      "Ġexec": 1502,
      "column": 1503,
      "Ġyield": 1504,
      "itions": 1505,
      "ĠCo": 1506,
      "resh": 1507,
      "etwe": 1508,
      "lication": 1509,
      "Ġmay": 1510,
      "ĊĊĠĠĠĠĠĠĠĠĠĠĠĠĠĠĠ": 1511,
      "level": 1512,
      "target": 1513,
      "SE": 1514,
      "etween": 1515,
      "ĠData": 1516,
      "Ġmode": 1517,
      "Ġarg": 1518,
      "TE": 1519,
      "Ġed": 1520,
      "ick": 1521,
      "Ġ.": 1522,
      "ĠReturn": 1523,
      "vid": 1524,
      "Ġwhile": 1525,
      "10": 1526,
      "session": 1527,
      "Ġcls": 1528,
      "ĠQ": 1529,
      "Ġ__": 1530,
      "mt": 1531,
      "Ġheader": 1532,
      "Ġentry": 1533,
      "pri": 1534,
      "plot": 1535,
      "ake": 1536,
      "List": 1537,
      "Ġstream": 1538,
      "arning": 1539,
      "ML": 1540,
      "match": 1541,
      "ĊĠĠĠĠĠĠĠĠĠĠĠĠĠ": 1542,
      "Ġlocal": 1543,
      "]:": 1544,
      "LI": 1545,
      "De": 1546,
      "Frame": 1547,
      "Ġconvert": 1548,
      "err": 1549,
      "Ġpage": 1550,
      "ector": 1551,
      "Ġfind": 1552,
      "Ġ['": 1553,
      "File": 1554,
      "Ġtest": 1555,
      "][": 1556,
      "Ġload": 1557,
      "sign": 1558,
      "ĠAPI": 1559,
      "Ġsupport": 1560,
      "stamp": 1561,
      "auth": 1562,
      "las": 1563,
      "of": 1564,
      "Ġassert": 1565,
      "options": 1566,
      "mission": 1567,
      "Ġfields": 1568,
      "Lo": 1569,
      "root": 1570,
      "tems": 1571,
      "content": 1572,
      "Ġtemplate": 1573,
      "Ġorig": 1574,
      "Ġroot": 1575,
      "direct": 1576,
      ")))": 1577,
      "Ġbetween": 1578,
      "Ġdocument": 1579,
      "iss": 1580,
      "Ġdate": 1581,
      "64": 1582,
      "Ġmatrix": 1583,
      "ager": 1584,
      "ambda": 1585,
      "ailed": 1586,
      "xy": 1587,
      "mension": 1588,
      "pr": 1589,
      "TP": 1590,
      "Ġlevel": 1591,
      "du": 1592,
      "man": 1593,
      "command": 1594,
      "frame": 1595,
      "Ġsequence": 1596,
      "right": 1597,
      "doc": 1598,
      "entifier": 1599,
      "ĠY": 1600,
      "SON": 1601,
      "Ġbytes": 1602,
      "resource": 1603,
      "Ġab": 1604,
      "Ġver": 1605,
      "ptional": 1606,
      "Ġaddress": 1607,
      "Ġtwo": 1608,
      "apping": 1609,
      "reak": 1610,
      "ither": 1611,
      "Ġchild": 1612,
      "ensor": 1613,
      "ĠExample": 1614,
      "ĠException": 1615,
      "Ġsearch": 1616,
      "tx": 1617,
      "ync": 1618,
      "htt": 1619,
      "Ġmetadata": 1620,
      "Ġsome": 1621,
      "ternal": 1622,
      "ans": 1623,
      "ph": 1624,
      "ency": 1625,
      "ĠRaises": 1626,
      "Un": 1627,
      "ĠList": 1628,
      "Ġafter": 1629,
      "Ġauth": 1630,
      "Ġnon": 1631,
      "find": 1632,
      "Ġ('": 1633,
      "ĠType": 1634,
      "Ġinclude": 1635,
      "fy": 1636,
      "Ġnext": 1637,
      "ustom": 1638,
      "Ġitems": 1639,
      "Ġavailable": 1640,
      "Ġbefore": 1641,
      "Create": 1642,
      "image": 1643,
      "Ġmake": 1644,
      "ful": 1645,
      "Ġheaders": 1646,
      "ĠKey": 1647,
      "Ġref": 1648,
      "Ġaxis": 1649,
      "Ġbot": 1650,
      "arn": 1651,
      "lp": 1652,
      "ĠPy": 1653,
      "Ġcom": 1654,
      "uri": 1655,
      "Ġjob": 1656,
      "ting": 1657,
      "Ġdevice": 1658,
      "mail": 1659,
      "TI": 1660,
      "mote": 1661,
      "Ser": 1662,
      "lobal": 1663,
      "ordin": 1664,
      "idx": 1665,
      "AN": 1666,
      "Ġparse": 1667,
      "Ġcache": 1668,
      "ĠWhe": 1669,
      "env": 1670,
      "cache": 1671,
      "Ġgraph": 1672,
      "ring": 1673,
      "itional": 1674,
      "Ġlay": 1675,
      "ugh": 1676,
      "ential": 1677,
      "parent": 1678,
      "bool": 1679,
      "ĠGet": 1680,
      "are": 1681,
      "ffer": 1682,
      "ored": 1683,
      "mary": 1684,
      "Ġinst": 1685,
      "link": 1686,
      "'))": 1687,
      "lease": 1688,
      "ols": 1689,
      "ĠURL": 1690,
      "view": 1691,
      "Ġalso": 1692,
      "Ġsys": 1693,
      "Ġinfo": 1694,
      "Ġbased": 1695,
      "number": 1696,
      "est": 1697,
      "lines": 1698,
      "igh": 1699,
      "current": 1700,
      "function": 1701,
      "gor": 1702,
      "atures": 1703,
      "rel": 1704,
      "PE": 1705,
      "ib": 1706,
      "``,": 1707,
      "cept": 1708,
      "Ġdatabase": 1709,
      "Ġlocation": 1710,
      "Ġdataset": 1711,
      "swith": 1712,
      "Ġfla": 1713,
      "olean": 1714,
      "store": 1715,
      "curs": 1716,
      "Ġcalled": 1717,
      "pected": 1718,
      "Ġprefix": 1719,
      "Ġlimit": 1720,
      "Ġcreated": 1721,
      "respon": 1722,
      "limit": 1723,
      "Ġfollow": 1724,
      ")]": 1725,
      "Exception": 1726,
      "Ġwhether": 1727,
      "AC": 1728,
      ".,": 1729,
      "Ġdtype": 1730,
      "net": 1731,
      "Ġlogging": 1732,
      "Ġstruct": 1733,
      "Ġproject": 1734,
      "Ġinitial": 1735,
      "ric": 1736,
      "ves": 1737,
      "ĠSee": 1738,
      "Ġparser": 1739,
      "gment": 1740,
      "Ġlines": 1741,
      "work": 1742,
      "Ġq": 1743,
      "ĠNot": 1744,
      "exception": 1745,
      "Ġcomm": 1746,
      "lable": 1747,
      "Ġbeen": 1748,
      "Ġclo": 1749,
      "Ġdist": 1750,
      "su": 1751,
      "Ġcopy": 1752,
      "Ġap": 1753,
      "last": 1754,
      "(*": 1755,
      "Ġoffset": 1756,
      "ret": 1757,
      "Ġkeyword": 1758,
      "copy": 1759,
      "Ġcolor": 1760,
      "prefix": 1761,
      "ĠIt": 1762,
      "32": 1763,
      "order": 1764,
      "vis": 1765,
      "ĊĠĠĠĠĠĠ": 1766,
      "Ġmap": 1767,
      "Ġsp": 1768,
      "Ġremove": 1769,
      "12": 1770,
      "ility": 1771,
      "Ġwrite": 1772,
      "ular": 1773,
      "Ġmem": 1774,
      "Ġrequired": 1775,
      "address": 1776,
      "Ġnormal": 1777,
      "Ġtemp": 1778,
      "pop": 1779,
      "ĠJSON": 1780,
      "script": 1781,
      "nown": 1782,
      "Ġdatetime": 1783,
      "Ġchannel": 1784,
      "Ġempty": 1785,
      "Ġexample": 1786,
      "Ġlink": 1787,
      "Ġcolumns": 1788,
      "strip": 1789,
      "exist": 1790,
      "print": 1791,
      "Ġequ": 1792,
      "Ġcallback": 1793,
      "Ġfunc": 1794,
      "Ġotherwise": 1795,
      "iple": 1796,
      "========": 1797,
      "})": 1798,
      "ĠAdd": 1799,
      "ister": 1800,
      "task": 1801,
      "Ġexists": 1802,
      "ait": 1803,
      "Check": 1804,
      "fields": 1805,
      "dered": 1806,
      "Ġsend": 1807,
      "ĠUn": 1808,
      "'),": 1809,
      "Ġnodes": 1810,
      "cmd": 1811,
      "actor": 1812,
      "round": 1813,
      "html": 1814,
      "vironment": 1815,
      "Ġsum": 1816,
      "SS": 1817,
      "go": 1818,
      "DO": 1819,
      "Ġframe": 1820,
      "yload": 1821,
      "sp": 1822,
      "Ġign": 1823,
      "Ġbreak": 1824,
      "Ġreference": 1825,
      "ank": 1826,
      "tal": 1827,
      "Ġexp": 1828,
      "EN": 1829,
      "Ġfull": 1830,
      "pped": 1831,
      "Ġcorrespon": 1832,
      "pass": 1833,
      "range": 1834,
      "ict": 1835,
      "stream": 1836,
      "ose": 1837,
      "cope": 1838,
      "uster": 1839,
      "lower": 1840,
      "ĠHT": 1841,
      "replace": 1842,
      "open": 1843,
      "yle": 1844,
      "uid": 1845,
      "comm": 1846,
      "top": 1847,
      "header": 1848,
      "wait": 1849,
      "Ġbin": 1850,
      "Ġfail": 1851,
      "Ġstrings": 1852,
      "anges": 1853,
      "Ġselect": 1854,
      "oci": 1855,
      "ero": 1856,
      "width": 1857,
      "000": 1858,
      "Ġter": 1859,
      "test": 1860,
      "Ġali": 1861,
      "ownload": 1862,
      "ide": 1863,
      "etch": 1864,
      "ities": 1865,
      "Ġdefined": 1866,
      "flow": 1867,
      "Ġerrors": 1868,
      "FI": 1869,
      "pression": 1870,
      "RI": 1871,
      ")):": 1872,
      "Ġdiffe": 1873,
      "Ġattributes": 1874,
      "Ġdf": 1875,
      ":`~": 1876,
      "element": 1877,
      "ĠPro": 1878,
      "orage": 1879,
      "Ġweight": 1880,
      "Ġlike": 1881,
      "ĊĠĠĠĠĠĠĠĠĠĠĠĠĠĠĠĠĠ": 1882,
      "very": 1883,
      "ql": 1884,
      "mode": 1885,
      "Ġdepend": 1886,
      "Ġ6": 1887,
      "Ġnetwork": 1888,
      "LO": 1889,
      "ĠSet": 1890,
      "Ġdest": 1891,
      "[-": 1892,
      "Ġtop": 1893,
      "search": 1894,
      "ster": 1895,
      "pth": 1896,
      "ĠNote": 1897,
      "},": 1898,
      "Ġeither": 1899,
      "ges": 1900,
      "Ġbuild": 1901,
      "...": 1902,
      "Ġcharact": 1903,
      "raises": 1904,
      "Ġaccess": 1905,
      "ass": 1906,
      "Ġpython": 1907,
      "Ġthem": 1908,
      "Ġ'.": 1909,
      "Ġsuccess": 1910,
      "section": 1911,
      "ĠWe": 1912,
      "clu": 1913,
      "Ġpassword": 1914,
      "Ġcmd": 1915,
      "Ġbody": 1916,
      "graph": 1917,
      "ĠName": 1918,
      "ĊĠĠĠĠĠĠĠĠĠĠĠĠ": 1919,
      "Ġattr": 1920,
      "Ġlook": 1921,
      "itude": 1922,
      "Ġplot": 1923,
      "Ġsample": 1924,
      "Value": 1925,
      "child": 1926,
      "ride": 1927,
      "vices": 1928,
      "ĊĠĠĠĠĠĠĠĠĠĠĠĠĠĠĠĠĠĠĠĠĠĠĠĠĠĠĠĠĠĠĠ": 1929,
      "Ġtypes": 1930,
      "stra": 1931,
      "connect": 1932,
      "Ġwh": 1933,
      "loc": 1934,
      "angu": 1935,
      "Ġcompon": 1936,
      "Ġenum": 1937,
      "Ġword": 1938,
      "ice": 1939,
      "server": 1940,
      "Ġdel": 1941,
      "Ġinteger": 1942,
      "datetime": 1943,
      "dout": 1944,
      "exec": 1945,
      "ugin": 1946,
      "offset": 1947,
      "Ġwant": 1948,
      "The": 1949,
      "Ġelements": 1950,
      "olume": 1951,
      "uni": 1952,
      "RO": 1953,
      "istr": 1954,
      "rol": 1955,
      "ssages": 1956,
      "color": 1957,
      "Ġlib": 1958,
      "Ġpackage": 1959,
      "ination": 1960,
      "]]": 1961,
      "Ġcollection": 1962,
      "ling": 1963,
      "cale": 1964,
      "aded": 1965,
      "ĠTypeError": 1966,
      "difi": 1967,
      "Ġtree": 1968,
      "hent": 1969,
      "ification": 1970,
      "Ġdb": 1971,
      "ET": 1972,
      "Ġpoints": 1973,
      "hentic": 1974,
      "gen": 1975,
      "Ġsettings": 1976,
      "headers": 1977,
      "Ġexisting": 1978,
      "bit": 1979,
      "other": 1980,
      "SI": 1981,
      "record": 1982,
      "rary": 1983,
      "lied": 1984,
      "Ġbound": 1985,
      "Ġtf": 1986,
      "Ġsee": 1987,
      "ux": 1988,
      "cry": 1989,
      "Ġimplement": 1990,
      "Ġsystem": 1991,
      "lasses": 1992,
      "local": 1993,
      "idget": 1994,
      "Ġ10": 1995,
      "enerate": 1996,
      "Ġsection": 1997,
      "Ġcontains": 1998,
      "Ġconnect": 1999,
      "wer": 2000,
      "axis": 2001,
      "tuple": 2002,
      "']:": 2003,
      "Ġrequests": 2004,
      "title": 2005,
      "Ġsorted": 2006,
      "(_": 2007,
      "Ġrandom": 2008,
      "ater": 2009,
      "Ġview": 2010,
      "cies": 2011,
      "my": 2012,
      "Ġthread": 2013,
      "rt": 2014,
      "fn": 2015,
      "hash": 2016,
      "service": 2017,
      "fl": 2018,
      "verse": 2019,
      "vo": 2020,
      "Ġfl": 2021,
      "remove": 2022,
      "Ġdescription": 2023,
      "Ġpattern": 2024,
      "Ġupd": 2025,
      "bytes": 2026,
      "Ġposition": 2027,
      "cat": 2028,
      "ics": 2029,
      "Ġgo": 2030,
      "Ġdimension": 2031,
      "----------------": 2032,
      "Ġchunk": 2033,
      "Time": 2034,
      "Comp": 2035,
      "Ġvariables": 2036,
      "Ġregion": 2037,
      "close": 2038,
      "####": 2039,
      "ndarray": 2040,
      "build": 2041,
      "Ġschema": 2042,
      "fer": 2043,
      "Ġold": 2044,
      "project": 2045,
      "Ġraw": 2046,
      "kip": 2047,
      "Ġcoordin": 2048,
      "bar": 2049,
      "ĠOptional": 2050,
      "ssible": 2051,
      "Ġcalcul": 2052,
      "Ġ8": 2053,
      "mon": 2054,
      "Ġassoci": 2055,
      "Ġpub": 2056,
      "req": 2057,
      "metadata": 2058,
      "char": 2059,
      "ĠK": 2060,
      "ript": 2061,
      "util": 2062,
      "ically": 2063,
      "points": 2064,
      "ttrib": 2065,
      "ĠPython": 2066,
      "ward": 2067,
      "alid": 2068,
      "Ġgetattr": 2069,
      "Up": 2070,
      "Ġthey": 2071,
      "umber": 2072,
      "ear": 2073,
      "page": 2074,
      "Ġhandler": 2075,
      "rough": 2076,
      "Ġ>=": 2077,
      "Ġhandle": 2078,
      "Ġpair": 2079,
      "CO": 2080,
      "mod": 2081,
      "stead": 2082,
      "Ġmultiple": 2083,
      "ts": 2084,
      "ĊĠĠĠĠĠĠĠĠĠĠĠĠĠĠ": 2085,
      "untime": 2086,
      "Ġoperation": 2087,
      "org": 2088,
      "bin": 2089,
      "ĊĠĠĠĠĠĠĠĠĠĠĠĠĠĠĠĠĠĠĠĠĠ": 2090,
      "abled": 2091,
      "vious": 2092,
      "the": 2093,
      "issing": 2094,
      "Convert": 2095,
      "25": 2096,
      "Ġpla": 2097,
      "Ġ'%": 2098,
      "Ġqueue": 2099,
      "Ġhash": 2100,
      "Ġaccount": 2101,
      "čĊĠĠĠĠĠĠĠĠĠĠĠ": 2102,
      "izer": 2103,
      "Ġtotal": 2104,
      "timeout": 2105,
      "Ġhttp": 2106,
      "NA": 2107,
      "exists": 2108,
      "sort": 2109,
      "now": 2110,
      "alog": 2111,
      "box": 2112,
      "template": 2113,
      "pol": 2114,
      "handle": 2115,
      "rieve": 2116,
      "rapper": 2117,
      "sca": 2118,
      "variable": 2119,
      "Ġjust": 2120,
      "Ġseconds": 2121,
      "dim": 2122,
      "send": 2123,
      "Ġremo": 2124,
      "tocol": 2125,
      "ome": 2126,
      "Ġob": 2127,
      "-+-+-+-+": 2128,
      "term": 2129,
      "'].": 2130,
      "UT": 2131,
      "({": 2132,
      "Ġmask": 2133,
      "anguage": 2134,
      "roll": 2135,
      "kens": 2136,
      "post": 2137,
      "spec": 2138,
      "nodes": 2139,
      "Ġmark": 2140,
      "connection": 2141,
      "hed": 2142,
      "pub": 2143,
      "math": 2144,
      "Ġsave": 2145,
      "andas": 2146,
      "Ġoriginal": 2147,
      "anged": 2148,
      "http": 2149,
      "Ġund": 2150,
      "itor": 2151,
      "Ġwait": 2152,
      "ĠAl": 2153,
      "Ġlabels": 2154,
      "stant": 2155,
      "Ġwithin": 2156,
      "]):": 2157,
      "ĊĠĠĠĠĠĠĠĠĠĠĠĠĠĠĠĠĠĠĠĠ": 2158,
      "Ġprofile": 2159,
      "book": 2160,
      "location": 2161,
      "mask": 2162,
      "licy": 2163,
      "ered": 2164,
      "gest": 2165,
      "exp": 2166,
      "Ġ&": 2167,
      "Ġtitle": 2168,
      "init": 2169,
      "Ġadded": 2170,
      "Ġsa": 2171,
      "Ġet": 2172,
      "Ġfinal": 2173,
      "Ġtheir": 2174,
      "Ġspecific": 2175,
      "logger": 2176,
      "erge": 2177,
      "Ġreplace": 2178,
      "Not": 2179,
      "Ġgen": 2180,
      "requ": 2181,
      "tails": 2182,
      "Ġsplit": 2183,
      "Ġfeature": 2184,
      "rection": 2185,
      "Ġdesc": 2186,
      "iod": 2187,
      "lear": 2188,
      "entry": 2189,
      "cond": 2190,
      "oc": 2191,
      "dtype": 2192,
      "AG": 2193,
      ".')": 2194,
      "startswith": 2195,
      "del": 2196,
      "Ġcell": 2197,
      "mbol": 2198,
      ".\")": 2199,
      "AD": 2200,
      "Ġcontainer": 2201,
      "Ġencoding": 2202,
      "parser": 2203,
      "mark": 2204,
      "']['": 2205,
      "ĠDe": 2206,
      "UL": 2207,
      "utf": 2208,
      "Ġph": 2209,
      "aut": 2210,
      "Ġ]": 2211,
      "Ġcustom": 2212,
      "Ġ<=": 2213,
      "ĊĠĠĠĠĠĠĠĠĠĠĠĠĠĠĠĠĠĠ": 2214,
      "optional": 2215,
      "Ġcorresponding": 2216,
      "rs": 2217,
      "ribution": 2218,
      "ced": 2219,
      "}'.": 2220,
      "ĠExamples": 2221,
      "Ġunique": 2222,
      "ĠCheck": 2223,
      "Ġfollowing": 2224,
      "Ġinstead": 2225,
      "channel": 2226,
      "xml": 2227,
      "ived": 2228,
      "To": 2229,
      "ely": 2230,
      "Ġvar": 2231,
      "Ġbatch": 2232,
      "ogle": 2233,
      "Ġproperty": 2234,
      "Ġvari": 2235,
      "ump": 2236,
      "guments": 2237,
      "stack": 2238,
      "Ġgra": 2239,
      "Ġpi": 2240,
      "entity": 2241,
      "encode": 2242,
      "Ġcond": 2243,
      "bose": 2244,
      "med": 2245,
      "Ġrule": 2246,
      "ince": 2247,
      "Ġenumer": 2248,
      "Ġunicode": 2249,
      "ING": 2250,
      "Ġwidth": 2251,
      "delete": 2252,
      "Ġrece": 2253,
      "mem": 2254,
      "Ġop": 2255,
      "Ġbeing": 2256,
      "Ġlayer": 2257,
      "thing": 2258,
      "dist": 2259,
      "eded": 2260,
      "riter": 2261,
      "Ġdelete": 2262,
      "Ġthrough": 2263,
      "Ġapi": 2264,
      "Ġproperties": 2265,
      "Ġcli": 2266,
      "Ġserial": 2267,
      "meta": 2268,
      "Ġ\"\"": 2269,
      "Ġshow": 2270,
      "En": 2271,
      "gram": 2272,
      "propert": 2273,
      "Ch": 2274,
      "Ġdifferent": 2275,
      "ttribute": 2276,
      "olution": 2277,
      "ted": 2278,
      "settings": 2279,
      "raise": 2280,
      "Ġsent": 2281,
      "Ġstep": 2282,
      "space": 2283,
      "ven": 2284,
      "ĠCLI": 2285,
      "medi": 2286,
      "ob": 2287,
      "redential": 2288,
      "keep": 2289,
      "Ġboolean": 2290,
      "ĠTO": 2291,
      "Ġdecor": 2292,
      "ged": 2293,
      "cf": 2294,
      "ĠLo": 2295,
      "sing": 2296,
      "ĊĠĠĠĠĠĠĠĠĠĠĠĠĠĠĠĠĠĠĠĠĠĠĠĠĠĠĠĠ": 2297,
      "ten": 2298,
      "yp": 2299,
      "cho": 2300,
      "alled": 2301,
      "Ġrows": 2302,
      "derr": 2303,
      "gr": 2304,
      "Ġidentifier": 2305,
      "CE": 2306,
      "Ġpresent": 2307,
      "Ġenv": 2308,
      "Ġenvironment": 2309,
      "Ġextract": 2310,
      "Ġabout": 2311,
      "Ġmaximum": 2312,
      "Read": 2313,
      "valu": 2314,
      "Ġnote": 2315,
      "ĠRes": 2316,
      "callback": 2317,
      "Ġpost": 2318,
      "pha": 2319,
      "side": 2320,
      "leted": 2321,
      "Ġglobal": 2322,
      "Config": 2323,
      "Ġstop": 2324,
      "ĊĠĠĠĠĠĠĠĠĠĠĠĠĠĠĠĠĠĠĠĠĠĠĠĠĠ": 2325,
      "ions": 2326,
      "andard": 2327,
      "Ġappro": 2328,
      "Ġremote": 2329,
      "tree": 2330,
      "Request": 2331,
      "upport": 2332,
      "TY": 2333,
      "Ġsecond": 2334,
      "\\\\": 2335,
      "Ġpossible": 2336,
      "ĊĠĠĠĠĠĠĠĠĠĠĠĠĠĠĠĠĠĠĠĠĠĠ": 2337,
      "cause": 2338,
      "Ġstat": 2339,
      "weight": 2340,
      "Me": 2341,
      "abs": 2342,
      "Ġright": 2343,
      "Ġmapping": 2344,
      "Ġchange": 2345,
      "Hand": 2346,
      "pk": 2347,
      "Ġhasattr": 2348,
      "body": 2349,
      "\"):": 2350,
      "ont": 2351,
      "nder": 2352,
      "over": 2353,
      "Ġusername": 2354,
      "enco": 2355,
      "Ġwindow": 2356,
      "ush": 2357,
      "vals": 2358,
      "nap": 2359,
      "(**": 2360,
      "decode": 2361,
      "lice": 2362,
      "Ġassociated": 2363,
      "Ġfailed": 2364,
      "ured": 2365,
      "serial": 2366,
      "Ġsuch": 2367,
      "Ġunit": 2368,
      "fla": 2369,
      "rest": 2370,
      "ĠKeyError": 2371,
      "Ġstore": 2372,
      "Ġnamespace": 2373,
      "duct": 2374,
      "exc": 2375,
      "Ġerr": 2376,
      "sets": 2377,
      "ĠHTTP": 2378,
      "batch": 2379,
      "Ġhelp": 2380,
      "conf": 2381,
      "lambda": 2382,
      "11": 2383,
      "Qu": 2384,
      "Ġpaths": 2385,
      "has": 2386,
      "ffect": 2387,
      "Ġenumerate": 2388,
      "until": 2389,
      "opts": 2390,
      "Ġsim": 2391,
      "Ġ'*": 2392,
      "Ġtrue": 2393,
      "Ġprevious": 2394,
      "Ġwrit": 2395,
      "rop": 2396,
      "Ġoc": 2397,
      "extra": 2398,
      "objects": 2399,
      "ĠCreate": 2400,
      "ined": 2401,
      "Ġsupported": 2402,
      "older": 2403,
      "mount": 2404,
      "seq": 2405,
      "ually": 2406,
      "tract": 2407,
      "Ġtags": 2408,
      "uted": 2409,
      "Ġ'/": 2410,
      "Ġdistance": 2411,
      "Ġvector": 2412,
      "99": 2413,
      "Ġdomain": 2414,
      "ĠSer": 2415,
      "ĠUse": 2416,
      "Ġgenerate": 2417,
      "Ċĉĉĉ": 2418,
      "Ġiterable": 2419,
      "Ġnd": 2420,
      "alys": 2421,
      "Ġrepresenting": 2422,
      "Ġparsed": 2423,
      "crypt": 2424,
      "Ġhttps": 2425,
      "uture": 2426,
      "ĊĠĠĠĠĠĠĠĠĠĠĠĠĠĠĠĠĠĠĠĠĠĠĠĠĠĠĠĠĠĠĠĠĠĠĠĠĠĠĠĠĠĠĠĠĠĠĠĠ": 2427,
      "Ġspecify": 2428,
      "Ġ''": 2429,
      "Ġpayload": 2430,
      "Ġmatching": 2431,
      "Ġextension": 2432,
      "gress": 2433,
      "posit": 2434,
      "ffix": 2435,
      "Object": 2436,
      "only": 2437,
      "Ġinvalid": 2438,
      "Ġdon": 2439,
      "Ġreport": 2440,
      "ason": 2441,
      "gorith": 2442,
      "save": 2443,
      "lex": 2444,
      "Col": 2445,
      "Ġwithout": 2446,
      "ware": 2447,
      "Ġinclu": 2448,
      "Ġunder": 2449,
      "]))": 2450,
      "Ġabs": 2451,
      "Ġforce": 2452,
      "Ġindic": 2453,
      "eta": 2454,
      "Ġmon": 2455,
      "stim": 2456,
      "results": 2457,
      "Ġmissing": 2458,
      "olve": 2459,
      "Ġexpression": 2460,
      "Ġcallable": 2461,
      "Ġendpoint": 2462,
      "quired": 2463,
      "device": 2464,
      "columns": 2465,
      "Ġrunning": 2466,
      "Ġsepar": 2467,
      "uild": 2468,
      "Ġdisplay": 2469,
      "ĊĠĠĠĠĠĠĠĠĠĠĠĠĠĠĠĠĠĠĠĠĠĠĠĠĠĠ": 2470,
      "Ġmy": 2471,
      "au": 2472,
      "python": 2473,
      "cp": 2474,
      "Ġsignal": 2475,
      "').": 2476,
      "0000": 2477,
      "matrix": 2478,
      "Ġboth": 2479,
      "Ġge": 2480,
      "indi": 2481,
      "MP": 2482,
      "Ġleft": 2483,
      "FA": 2484,
      "ences": 2485,
      "idd": 2486,
      "unter": 2487,
      "Ġmessages": 2488,
      "gory": 2489,
      "Ġapplication": 2490,
      "Ġexpected": 2491,
      "select": 2492,
      "fs": 2493,
      "Array": 2494,
      "CH": 2495,
      "16": 2496,
      "Ġagain": 2497,
      "=[": 2498,
      "Ġsamples": 2499,
      "aml": 2500,
      "alysis": 2501,
      "Response": 2502,
      "Ġwho": 2503,
      "Ġyour": 2504,
      "handler": 2505,
      "password": 2506,
      "layer": 2507,
      "Ġpol": 2508,
      "reshold": 2509,
      "ĠOn": 2510,
      "Ġmatches": 2511,
      "Ġhere": 2512,
      "Ġevery": 2513,
      "ATE": 2514,
      "ĠIP": 2515,
      "Ġtimestamp": 2516,
      "ators": 2517,
      "istry": 2518,
      "random": 2519,
      "UN": 2520,
      "Ġcons": 2521,
      "Ġrepresentation": 2522,
      "Ġbash": 2523,
      "ĠTODO": 2524,
      "MA": 2525,
      "Ġdefaults": 2526,
      "Ġindices": 2527,
      "Dict": 2528,
      "akes": 2529,
      "mal": 2530,
      "Ġsimp": 2531,
      "gine": 2532,
      "active": 2533,
      "DI": 2534,
      "ww": 2535,
      "ily": 2536,
      "Ġapply": 2537,
      "description": 2538,
      "Ġcorrect": 2539,
      "gy": 2540,
      "No": 2541,
      "step": 2542,
      "sample": 2543,
      "Parse": 2544,
      "Ġfunctions": 2545,
      "Ġstructure": 2546,
      "network": 2547,
      "Ġlong": 2548,
      "Ġ7": 2549,
      "Ġbyte": 2550,
      "Ġassign": 2551,
      "Ġmean": 2552,
      "domain": 2553,
      "otal": 2554,
      "encies": 2555,
      "reates": 2556,
      "ie": 2557,
      "comment": 2558,
      "directory": 2559,
      "aries": 2560,
      "ias": 2561,
      "Path": 2562,
      "Ġopt": 2563,
      "ĠDefaults": 2564,
      "grid": 2565,
      "tach": 2566,
      "alcul": 2567,
      "Ġloop": 2568,
      "warning": 2569,
      "full": 2570,
      "sor": 2571,
      "cret": 2572,
      "Ġevents": 2573,
      "Ġinterface": 2574,
      "hell": 2575,
      "cloud": 2576,
      "Ġpd": 2577,
      "ices": 2578,
      "schema": 2579,
      "addr": 2580,
      "Node": 2581,
      "labels": 2582,
      "pc": 2583,
      "fici": 2584,
      "left": 2585,
      "zone": 2586,
      "Ġmeta": 2587,
      "vate": 2588,
      ")[": 2589,
      "Ġseries": 2590,
      "Form": 2591,
      "This": 2592,
      "Ġspace": 2593,
      "annot": 2594,
      "ĠComp": 2595,
      "next": 2596,
      "Ġndarray": 2597,
      "here": 2598,
      "Ġtransform": 2599,
      "PO": 2600,
      "EL": 2601,
      ".\"": 2602,
      "gorithm": 2603,
      "Log": 2604,
      "ek": 2605,
      "ways": 2606,
      "Ġbecause": 2607,
      "shot": 2608,
      "Ġiss": 2609,
      "Index": 2610,
      "down": 2611,
      "[:,": 2612,
      "requency": 2613,
      "Ġthese": 2614,
      "samples": 2615,
      "stat": 2616,
      "ites": 2617,
      "Found": 2618,
      "vider": 2619,
      "ranch": 2620,
      "Ġflag": 2621,
      "groups": 2622,
      "Ġpe": 2623,
      "Ġidx": 2624,
      "first": 2625,
      "pattern": 2626,
      "Ġauthor": 2627,
      "Ġzip": 2628,
      "Ġdoesn": 2629,
      "Ġind": 2630,
      "zip": 2631,
      "rm": 2632,
      "Ġ\"%": 2633,
      "DF": 2634,
      "Ret": 2635,
      "Ġmemory": 2636,
      "numpy": 2637,
      "wit": 2638,
      "Ġsha": 2639,
      "Ġcontents": 2640,
      "CON": 2641,
      "Ġrelative": 2642,
      "paths": 2643,
      "Ġ'*'": 2644,
      "Ġignore": 2645,
      "bound": 2646,
      "actory": 2647,
      "redentials": 2648,
      "ords": 2649,
      "Ġbinary": 2650,
      "ended": 2651,
      "Run": 2652,
      "Ġnow": 2653,
      "Ġstack": 2654,
      "Ġ9": 2655,
      "Invalid": 2656,
      "system": 2657,
      "OT": 2658,
      "temp": 2659,
      "inst": 2660,
      "ian": 2661,
      "extend": 2662,
      "ia": 2663,
      "Ġedge": 2664,
      "Ġip": 2665,
      "Ġvis": 2666,
      "ker": 2667,
      "Ġstored": 2668,
      "Ġexc": 2669,
      "Ġrep": 2670,
      "cli": 2671,
      "ĠDi": 2672,
      "omat": 2673,
      "mult": 2674,
      "na": 2675,
      "04": 2676,
      "metry": 2677,
      "delta": 2678,
      "Ġcent": 2679,
      "known": 2680,
      "ĠPath": 2681,
      "Ġhow": 2682,
      "river": 2683,
      "parameters": 2684,
      "Ġfig": 2685,
      "ĠLO": 2686,
      ":]": 2687,
      "Ġinstances": 2688,
      "oper": 2689,
      "ively": 2690,
      "'''": 2691,
      "gener": 2692,
      "Ġcomplete": 2693,
      "Ġcomponent": 2694,
      "Ġheight": 2695,
      "Ġtrain": 2696,
      "mage": 2697,
      "cker": 2698,
      "gin": 2699,
      "change": 2700,
      "ould": 2701,
      "cifi": 2702,
      "ving": 2703,
      "Ġuntil": 2704,
      "State": 2705,
      "QL": 2706,
      "rows": 2707,
      "ĠWhen": 2708,
      "ĊĠĠĠĠĠĠĠĠĠĠĠĠĠĠĠĠĠĠĠĠĠĠĠĠĠĠĠĠĠ": 2709,
      "pository": 2710,
      "verage": 2711,
      "src": 2712,
      "App": 2713,
      "napshot": 2714,
      "contain": 2715,
      "Element": 2716,
      "tect": 2717,
      "meth": 2718,
      "Ġcoordinates": 2719,
      "tags": 2720,
      "rate": 2721,
      "diff": 2722,
      "Ġtimes": 2723,
      "CT": 2724,
      "Ġcert": 2725,
      "Ġmethods": 2726,
      "Cont": 2727,
      "ĠDataFrame": 2728,
      "rict": 2729,
      "username": 2730,
      "Ġremoved": 2731,
      "orig": 2732,
      "vari": 2733,
      "izes": 2734,
      "Ġsuper": 2735,
      "NAME": 2736,
      "Ġow": 2737,
      "Ġhist": 2738,
      "Ġcate": 2739,
      "ĠFile": 2740,
      "access": 2741,
      "Ġut": 2742,
      "ĠOther": 2743,
      "Ġdetails": 2744,
      "andid": 2745,
      "termin": 2746,
      "profile": 2747,
      "ĠNumber": 2748,
      "bab": 2749,
      "sa": 2750,
      "Ġcould": 2751,
      "less": 2752,
      "Ġreal": 2753,
      "DataFrame": 2754,
      "oid": 2755,
      "ĠWhether": 2756,
      "Ġcluster": 2757,
      "ng": 2758,
      "stop": 2759,
      "Ġpk": 2760,
      "ross": 2761,
      "Ġtransaction": 2762,
      "Po": 2763,
      "buffer": 2764,
      "Ġequal": 2765,
      "chain": 2766,
      "Ġcannot": 2767,
      "Ġentries": 2768,
      "Ġawait": 2769,
      "uplic": 2770,
      "Ġwould": 2771,
      "tempt": 2772,
      "eros": 2773,
      "sys": 2774,
      "ram": 2775,
      "bers": 2776,
      "Ġkeep": 2777,
      "ystem": 2778,
      "Client": 2779,
      "Ġ'{": 2780,
      "mbed": 2781,
      "Ġperform": 2782,
      "Ġzero": 2783,
      "olute": 2784,
      "errors": 2785,
      "Ġmodifi": 2786,
      "ĊĠĠĠĠĠĠĠĠĠĠĠĠĠĠĠĠĠĠĠĠĠĠĠĠĠĠĠĠĠĠĠĠĠĠĠĠĠĠĠĠĠĠĠĠĠĠĠĠĠĠĠĠĠĠĠĠ": 2787,
      "Ġsocket": 2788,
      "String": 2789,
      "Ġadditional": 2790,
      "Ġclean": 2791,
      "rics": 2792,
      "AB": 2793,
      "can": 2794,
      "FF": 2795,
      "ending": 2796,
      "IT": 2797,
      "mean": 2798,
      "Ġauthentic": 2799,
      "DB": 2800,
      "mbers": 2801,
      "Ġscale": 2802,
      "Ġlambda": 2803,
      "Ġneeded": 2804,
      "ilter": 2805,
      "straint": 2806,
      "Ġ'-": 2807,
      "Ġdown": 2808,
      "gre": 2809,
      "Failed": 2810,
      "salt": 2811,
      "Ġsrc": 2812,
      "Ġsignature": 2813,
      "Ġscope": 2814,
      "Ġchain": 2815,
      "Ġrequested": 2816,
      "Ġgenerator": 2817,
      "sv": 2818,
      "peline": 2819,
      "}\".": 2820,
      "atform": 2821,
      "]['": 2822,
      "Ġdir": 2823,
      "SC": 2824,
      "added": 2825,
      "models": 2826,
      "Ġfeatures": 2827,
      "Ġsince": 2828,
      "Ġgenerated": 2829,
      "Model": 2830,
      "itive": 2831,
      "Load": 2832,
      "day": 2833,
      "normal": 2834,
      "={": 2835,
      "ĊĠĠĠĠĠĠĠĠĊĠĠĠĠĠĠĠ": 2836,
      "pping": 2837,
      "gments": 2838,
      "Ġemail": 2839,
      "Ġstandard": 2840,
      "02": 2841,
      "stats": 2842,
      "čĊĠĠĠ": 2843,
      "unit": 2844,
      "Ġvolume": 2845,
      "rule": 2846,
      "Ġallowed": 2847,
      "TYPE": 2848,
      "Ġconf": 2849,
      "style": 2850,
      "txt": 2851,
      "__['": 2852,
      "docs": 2853,
      "IO": 2854,
      "tr": 2855,
      "conds": 2856,
      "ULT": 2857,
      "Ġsix": 2858,
      "Ġvert": 2859,
      "Ġsite": 2860,
      "account": 2861,
      "Ġentity": 2862,
      "wd": 2863,
      "ĊĠĠĠĠĠĠĠĠĠĠĠĠĠĠĠĠĠĠĠĠĠĠĠĠĠĠĠĠĠĠĠĠĠĠĠ": 2864,
      "ferences": 2865,
      "Ġspec": 2866,
      "Ġmod": 2867,
      "Reg": 2868,
      "Ġcharacters": 2869,
      "ives": 2870,
      "Ġplugin": 2871,
      "git": 2872,
      "TION": 2873,
      "sha": 2874,
      "Ġgrid": 2875,
      "=(": 2876,
      "Ġsure": 2877,
      "Ġupdated": 2878,
      "Met": 2879,
      "Event": 2880,
      "istered": 2881,
      "Ġnamed": 2882,
      "case": 2883,
      "Ġvalidate": 2884,
      "Ġlat": 2885,
      "manager": 2886,
      "atted": 2887,
      "Ġdebug": 2888,
      "cell": 2889,
      "Ġbuffer": 2890,
      "Ġestim": 2891,
      "ls": 2892,
      "Ġbucket": 2893,
      "Ġconn": 2894,
      "Ġdistribution": 2895,
      "make": 2896,
      "Ġaccept": 2897,
      "Ġho": 2898,
      "Ġweights": 2899,
      "âĶ": 2900,
      "Ġassume": 2901,
      "Ġretry": 2902,
      "Ġsupp": 2903,
      "way": 2904,
      "ki": 2905,
      "cast": 2906,
      "Ġmain": 2907,
      "Ġchanges": 2908,
      "ĠLOG": 2909,
      "_{": 2910,
      "Ġconstruct": 2911,
      "dev": 2912,
      "chine": 2913,
      "Ġ{\"": 2914,
      "tered": 2915,
      "ĠAny": 2916,
      "ĊĠĠĠĠĠĠĠĠĠĠĠĠĠĠĠĠĠĠĠĠĠĠĠĠĠĠĠĠĠĠ": 2917,
      "24": 2918,
      "ier": 2919,
      ")),": 2920,
      "Session": 2921,
      "Ġdisable": 2922,
      "lap": 2923,
      "dest": 2924,
      "Ġrequire": 2925,
      "Ġarch": 2926,
      "exceptions": 2927,
      "Ġsegment": 2928,
      "ĠTo": 2929,
      "stdout": 2930,
      "Ġscript": 2931,
      "Ġinsert": 2932,
      "hift": 2933,
      "NT": 2934,
      "sure": 2935,
      "Ġfit": 2936,
      "HT": 2937,
      "lish": 2938,
      "Ġmost": 2939,
      "Ġdefinition": 2940,
      "ĠAttribute": 2941,
      "licit": 2942,
      "Ġdone": 2943,
      "ctions": 2944,
      "ĠArguments": 2945,
      "sess": 2946,
      "Ġstorage": 2947,
      "ire": 2948,
      "ĠXML": 2949,
      "bot": 2950,
      "Ġour": 2951,
      "Ġscal": 2952,
      "okup": 2953,
      "Ġwhat": 2954,
      "hing": 2955,
      "ango": 2956,
      "Ġplace": 2957,
      "depend": 2958,
      "indices": 2959,
      "Ġresp": 2960,
      "foo": 2961,
      "ton": 2962,
      "Ġ'\\": 2963,
      "Ġinternal": 2964,
      "position": 2965,
      "ground": 2966,
      "ĊĊĉ": 2967,
      "An": 2968,
      "total": 2969,
      "inis": 2970,
      "Ġopts": 2971,
      "dataset": 2972,
      "true": 2973,
      "SO": 2974,
      "ĠUp": 2975,
      "ision": 2976,
      "/{": 2977,
      "patch": 2978,
      "201": 2979,
      "thread": 2980,
      "lat": 2981,
      "scale": 2982,
      "Ġverbose": 2983,
      "Process": 2984,
      "Info": 2985,
      "fra": 2986,
      "height": 2987,
      "opt": 2988,
      "hes": 2989,
      "compon": 2990,
      "show": 2991,
      "just": 2992,
      "ĠDo": 2993,
      "timestamp": 2994,
      "asure": 2995,
      "Ġ(\"": 2996,
      "cut": 2997,
      "Ġtokens": 2998,
      "Ġfolder": 2999,
      "Ġsuccessful": 3000,
      "import": 3001,
      "argument": 3002,
      "socket": 3003,
      "cessed": 3004,
      "Ġ\".": 3005,
      "els": 3006,
      "qual": 3007,
      "package": 3008,
      "Ġbit": 3009,
      "quences": 3010,
      "Ġclose": 3011,
      "cording": 3012,
      "formed": 3013,
      "Ġdownload": 3014,
      "Ġcursor": 3015,
      "uring": 3016,
      "Ġlower": 3017,
      "Per": 3018,
      "FAULT": 3019,
      "ulation": 3020,
      "loy": 3021,
      "used": 3022,
      "poch": 3023,
      "Ġ{}\".": 3024,
      "sl": 3025,
      "Ġfix": 3026,
      "lig": 3027,
      "sired": 3028,
      "proxy": 3029,
      "20": 3030,
      "serv": 3031,
      "Ġpandas": 3032,
      "Ġ[\"": 3033,
      "US": 3034,
      "Valid": 3035,
      "Ġpix": 3036,
      "classes": 3037,
      "Ġinputs": 3038,
      "Trans": 3039,
      "angle": 3040,
      "chedule": 3041,
      "Ġrecords": 3042,
      "Ġsetting": 3043,
      "warn": 3044,
      "async": 3045,
      "greg": 3046,
      "Ġpermission": 3047,
      "Ġdisk": 3048,
      "seconds": 3049,
      "Ġrest": 3050,
      "window": 3051,
      "Ġart": 3052,
      "actions": 3053,
      "ynam": 3054,
      "Py": 3055,
      "Ġskip": 3056,
      "\"],": 3057,
      "any": 3058,
      "Ġcho": 3059,
      "Ġalways": 3060,
      "Ġvia": 3061,
      "Ġdestination": 3062,
      "alle": 3063,
      "chunk": 3064,
      "des": 3065,
      "ivity": 3066,
      "Ġactive": 3067,
      "exit": 3068,
      "Ġevalu": 3069,
      "esc": 3070,
      "cle": 3071,
      "uting": 3072,
      "ometry": 3073,
      "Ġuses": 3074,
      "desc": 3075,
      "Ġlibrary": 3076,
      "'][": 3077,
      "Ġannot": 3078,
      "cheme": 3079,
      "ĊĊĠĠĠĠĠ": 3080,
      "series": 3081,
      "eps": 3082,
      "region": 3083,
      "pare": 3084,
      "Ġtri": 3085,
      "Ġmetric": 3086,
      "Ġlists": 3087,
      "Ġcharacter": 3088,
      "Ġdecorator": 3089,
      "late": 3090,
      "Ġthose": 3091,
      "ED": 3092,
      "Item": 3093,
      "hod": 3094,
      "Update": 3095,
      "bl": 3096,
      "ories": 3097,
      "ĠString": 3098,
      "Ġanother": 3099,
      "features": 3100,
      "Instance": 3101,
      "Ġselected": 3102,
      "ĠOtherwise": 3103,
      "Ġinterval": 3104,
      "Ġ',": 3105,
      "ithub": 3106,
      "vars": 3107,
      "ĠImp": 3108,
      "Ġparts": 3109,
      "tf": 3110,
      "ĠBy": 3111,
      "execute": 3112,
      "Ġids": 3113,
      "Ġ201": 3114,
      "Ġmeans": 3115,
      "train": 3116,
      "Ġctx": 3117,
      "Ġcomb": 3118,
      "cessary": 3119,
      "Ġlanguage": 3120,
      "hist": 3121,
      "Context": 3122,
      "properties": 3123,
      "sequence": 3124,
      "tools": 3125,
      "loaded": 3126,
      "peri": 3127,
      "Ġang": 3128,
      "Parser": 3129,
      "Ġautomat": 3130,
      "IP": 3131,
      "Ġgroups": 3132,
      "Ġtmp": 3133,
      "Ġactual": 3134,
      "cer": 3135,
      "https": 3136,
      "AM": 3137,
      "Ġway": 3138,
      "Ġbox": 3139,
      "board": 3140,
      "asic": 3141,
      "initial": 3142,
      "Field": 3143,
      "Ġproxy": 3144,
      "Ġaccording": 3145,
      "umps": 3146,
      "Ġstats": 3147,
      "EX": 3148,
      "Ġradi": 3149,
      "33": 3150,
      "ĠPer": 3151,
      "Ġcontrol": 3152,
      "cores": 3153,
      "50": 3154,
      "Ġwere": 3155,
      "Ġcomment": 3156,
      ">`": 3157,
      "card": 3158,
      "Ġdepth": 3159,
      "validate": 3160,
      "Ġtensor": 3161,
      "ants": 3162,
      "plotlib": 3163,
      "Find": 3164,
      "depth": 3165,
      "ĠMe": 3166,
      "Ġxml": 3167,
      "Ġweb": 3168,
      "ES": 3169,
      "sted": 3170,
      "tmp": 3171,
      "sig": 3172,
      "Ġtr": 3173,
      "Ġcompute": 3174,
      "Imp": 3175,
      "ilar": 3176,
      "ĠRuntime": 3177,
      "Ġregister": 3178,
      "cision": 3179,
      "blem": 3180,
      "jobs": 3181,
      "Ġ100": 3182,
      "ĠAs": 3183,
      "Ġmodels": 3184,
      "Ġfn": 3185,
      "Pre": 3186,
      "Text": 3187,
      "Result": 3188,
      "Ġprior": 3189,
      "ighb": 3190,
      "ĠTime": 3191,
      "Ġagainst": 3192,
      "Ġoverride": 3193,
      "AS": 3194,
      "ĠZ": 3195,
      "Ġcalls": 3196,
      "loop": 3197,
      "Ġinstall": 3198,
      "Ġalign": 3199,
      "empty": 3200,
      "Message": 3201,
      "email": 3202,
      "come": 3203,
      "Argument": 3204,
      "Ġflags": 3205,
      "ws": 3206,
      "'}": 3207,
      "Ġda": 3208,
      "Ġ'_": 3209,
      "scope": 3210,
      "Ġamount": 3211,
      "upper": 3212,
      "Ġinit": 3213,
      "API": 3214,
      "spect": 3215,
      "Ġwrapper": 3216,
      "Ġraised": 3217,
      "AP": 3218,
      "Ġscore": 3219,
      "cip": 3220,
      "ĊĠĠĠĠĠĠĠĠĠĠĠĠĠĠĠĠĠĠĠĠĠĠĠĠĠĠĠĠĠĠĠĠĠ": 3221,
      "ĠEn": 3222,
      "utable": 3223,
      "ĠNo": 3224,
      "pair": 3225,
      "attrs": 3226,
      "non": 3227,
      "cing": 3228,
      "Ġpairs": 3229,
      "pid": 3230,
      "tom": 3231,
      "Ġfast": 3232,
      "Ġreq": 3233,
      "conn": 3234,
      "Ġstdout": 3235,
      "ness": 3236,
      "rence": 3237,
      "Ġrecurs": 3238,
      "Ġnet": 3239,
      "jango": 3240,
      "ters": 3241,
      "words": 3242,
      "leep": 3243,
      "Series": 3244,
      "ends": 3245,
      "Ġunits": 3246,
      "Ġfra": 3247,
      "irt": 3248,
      "Ġmany": 3249,
      "User": 3250,
      "ilder": 3251,
      "Query": 3252,
      "Ġlock": 3253,
      "PC": 3254,
      "mag": 3255,
      "Ġbest": 3256,
      "Gets": 3257,
      "Ġalpha": 3258,
      "ĠCh": 3259,
      "rep": 3260,
      "ilt": 3261,
      "Ġseq": 3262,
      "Ġimages": 3263,
      "Ġarrays": 3264,
      "Ġperiod": 3265,
      "Ġtrace": 3266,
      "reference": 3267,
      "stderr": 3268,
      "Ġutils": 3269,
      "olver": 3270,
      "Ġpredi": 3271,
      "Ġday": 3272,
      "ĠAttributeError": 3273,
      "uuid": 3274,
      "dimension": 3275,
      "Ġdesired": 3276,
      "Ġcurrently": 3277,
      "google": 3278,
      ".*": 3279,
      "dot": 3280,
      "zeros": 3281,
      "ĠUser": 3282,
      "Call": 3283,
      "Ġpop": 3284,
      "Ġstates": 3285,
      "vision": 3286,
      "Ġrender": 3287,
      "Ġprotocol": 3288,
      "Ġauto": 3289,
      "eric": 3290,
      "Ġrole": 3291,
      "feature": 3292,
      "Ġaxes": 3293,
      "Ġdescrib": 3294,
      "Dis": 3295,
      "sessment": 3296,
      "ient": 3297,
      "witch": 3298,
      "ĠOnly": 3299,
      "Ġterm": 3300,
      "dio": 3301,
      "eter": 3302,
      "collection": 3303,
      "\"])": 3304,
      "KE": 3305,
      "Ġpool": 3306,
      "Ġexit": 3307,
      "Ġfilters": 3308,
      "Ġsubject": 3309,
      "Ġclick": 3310,
      "Ġresources": 3311,
      "cimal": 3312,
      "paces": 3313,
      "dates": 3314,
      "head": 3315,
      "Ġrepo": 3316,
      "identifier": 3317,
      "adding": 3318,
      "Ġcommit": 3319,
      "ĠNotes": 3320,
      "lies": 3321,
      "Ġminimum": 3322,
      "atten": 3323,
      "Ġprobab": 3324,
      "ĠAlso": 3325,
      "Ġleast": 3326,
      "Ġlon": 3327,
      "Creates": 3328,
      "ĠIndex": 3329,
      "Base": 3330,
      "Ġ{}'.": 3331,
      "Ġstyle": 3332,
      "folder": 3333,
      "Ġsig": 3334,
      "aly": 3335,
      "ane": 3336,
      "Ġwidget": 3337,
      "namespace": 3338,
      "Ġsm": 3339,
      "alculate": 3340,
      "Ġfactor": 3341,
      "Ġshort": 3342,
      "osid": 3343,
      "repo": 3344,
      "gative": 3345,
      "fast": 3346,
      "Ġwarn": 3347,
      "Ġalgorithm": 3348,
      "attributes": 3349,
      "cated": 3350,
      "Iter": 3351,
      "Ġnecessary": 3352,
      "ĠRuntimeError": 3353,
      "Ġcondition": 3354,
      "transform": 3355,
      "TER": 3356,
      "rompt": 3357,
      "vm": 3358,
      "Ġoccur": 3359,
      "Optional": 3360,
      "af": 3361,
      "Ġclasses": 3362,
      "Ġmulti": 3363,
      "Ġlar": 3364,
      "az": 3365,
      "Ġsur": 3366,
      "Exec": 3367,
      "bove": 3368,
      "Ġchanged": 3369,
      "Ġcommands": 3370,
      "metric": 3371,
      "bits": 3372,
      "Ġregistered": 3373,
      "Sub": 3374,
      ".'": 3375,
      "support": 3376,
      "ĠOS": 3377,
      "########": 3378,
      "ifact": 3379,
      "wrap": 3380,
      "roller": 3381,
      "GER": 3382,
      "insert": 3383,
      "fit": 3384,
      "Ġ12": 3385,
      "ectors": 3386,
      "TR": 3387,
      "34": 3388,
      "As": 3389,
      "ĊĠĠĠĠĊĠĠĠ": 3390,
      "priate": 3391,
      "Ġissue": 3392,
      "ctx": 3393,
      "quire": 3394,
      "Ġnumbers": 3395,
      "ather": 3396,
      "csv": 3397,
      "Ġmag": 3398,
      "ĠConvert": 3399,
      "Generate": 3400,
      "null": 3401,
      "ĠĊĠĠĠĠĠĠĠ": 3402,
      "Inter": 3403,
      "Ġfetch": 3404,
      "Ġexclude": 3405,
      "100": 3406,
      "Ġpacket": 3407,
      "Ġcommon": 3408,
      "Bo": 3409,
      "Ġder": 3410,
      "Ġensure": 3411,
      "Ġ'{}": 3412,
      "ĠQu": 3413,
      "eger": 3414,
      "ĠOr": 3415,
      "children": 3416,
      "Ġimplemented": 3417,
      "Ġsets": 3418,
      "encoding": 3419,
      "ĠSpe": 3420,
      "hex": 3421,
      "Ġneeds": 3422,
      "URL": 3423,
      "Ġht": 3424,
      "Ġbro": 3425,
      "leg": 3426,
      "Ġloaded": 3427,
      "Ġtuples": 3428,
      "ze": 3429,
      "Ent": 3430,
      "hook": 3431,
      "Ġzone": 3432,
      "================": 3433,
      "NO": 3434,
      "Ġsupplied": 3435,
      "Ġusers": 3436,
      "ower": 3437,
      "Ġprop": 3438,
      "Ġindent": 3439,
      "19": 3440,
      "Ġbl": 3441,
      "irtual": 3442,
      "Group": 3443,
      "parts": 3444,
      "30": 3445,
      "author": 3446,
      "Ġtrig": 3447,
      "Ġtake": 3448,
      "VER": 3449,
      "ĠValid": 3450,
      "rec": 3451,
      "loads": 3452,
      "je": 3453,
      "Ġtx": 3454,
      "ified": 3455,
      "Ġpartic": 3456,
      "Ġpublic": 3457,
      "Ġgre": 3458,
      "Ġappropriate": 3459,
      "cb": 3460,
      "document": 3461,
      "ION": 3462,
      "atio": 3463,
      "amily": 3464,
      "Ġdirection": 3465,
      "Ġalong": 3466,
      "convert": 3467,
      "__,": 3468,
      "ampling": 3469,
      "ificate": 3470,
      "Ġsymbol": 3471,
      "Ġetc": 3472,
      "Al": 3473,
      "Ġautomatically": 3474,
      "utput": 3475,
      "Ġalias": 3476,
      "ases": 3477,
      "('\\": 3478,
      "Ġstarting": 3479,
      "attribute": 3480,
      "Ġconverted": 3481,
      "parameter": 3482,
      "year": 3483,
      "allow": 3484,
      "hip": 3485,
      "Handler": 3486,
      "cert": 3487,
      "('/": 3488,
      "Class": 3489,
      "ĠIO": 3490,
      "80": 3491,
      "logging": 3492,
      "}.": 3493,
      "Ġhigh": 3494,
      "Ġdirectly": 3495,
      "Ġproduct": 3496,
      "Ġincluded": 3497,
      "âĶĢ": 3498,
      "Ġfailure": 3499,
      "Ġcomponents": 3500,
      "Ġ-----": 3501,
      "ĠYou": 3502,
      "utation": 3503,
      "15": 3504,
      "center": 3505,
      "idden": 3506,
      "TO": 3507,
      "payload": 3508,
      "lemented": 3509,
      "-+-+-+-+-+-+-+-+": 3510,
      "gers": 3511,
      "score": 3512,
      "Ġfuture": 3513,
      "Remove": 3514,
      "Build": 3515,
      "]),": 3516,
      "cla": 3517,
      "ĠCol": 3518,
      "Ġident": 3519,
      ":%": 3520,
      "report": 3521,
      "By": 3522,
      "Ġmath": 3523,
      "periment": 3524,
      "ATH": 3525,
      "commit": 3526,
      "Ġjoin": 3527,
      "Ġinstalled": 3528,
      "Ġctypes": 3529,
      "Ġexecute": 3530,
      "lis": 3531,
      "Ġchildren": 3532,
      "curity": 3533,
      "rapped": 3534,
      "ĠRE": 3535,
      "ense": 3536,
      "ugins": 3537,
      "Start": 3538,
      "Ġfill": 3539,
      "Ġencoded": 3540,
      "Ġmember": 3541,
      "(['": 3542,
      "buf": 3543,
      "Format": 3544,
      "SP": 3545,
      "lack": 3546,
      "ĠConfig": 3547,
      "radi": 3548,
      "_,": 3549,
      "MO": 3550,
      "global": 3551,
      "yg": 3552,
      "ars": 3553,
      "Ġpartition": 3554,
      "Ġfrequency": 3555,
      "ressed": 3556,
      "IL": 3557,
      "ĊĠĠĠĠĠĠĠĠĠĠĠĠĠĠĠĠĠĠĠĠĠĠĠĠĠĠĠĠĠĠĠĠĠĠ": 3558,
      "interval": 3559,
      "dumps": 3560,
      "Ġmerge": 3561,
      "ival": 3562,
      "Ġapplied": 3563,
      "lper": 3564,
      "tore": 3565,
      "Ġcat": 3566,
      "Ġtrack": 3567,
      "edge": 3568,
      "Ġker": 3569,
      "Ġignored": 3570,
      "Ġexport": 3571,
      "Ġcached": 3572,
      "Ġsummary": 3573,
      ",)": 3574,
      "Ġplt": 3575,
      "Table": 3576,
      "Ġretrieve": 3577,
      "register": 3578,
      "Man": 3579,
      "clean": 3580,
      "scriptor": 3581,
      "ru": 3582,
      "ensity": 3583,
      "Ġsuffix": 3584,
      "Ġexceptions": 3585,
      "Ġoptim": 3586,
      "Ġabsolute": 3587,
      "Ġprodu": 3588,
      "Gener": 3589,
      "pose": 3590,
      "Ġcalling": 3591,
      "bucket": 3592,
      "unicode": 3593,
      "čĊ": 3594,
      "Ġwell": 3595,
      "github": 3596,
      "where": 3597,
      "Ġdelta": 3598,
      "ĠAll": 3599,
      "Ġdimensions": 3600,
      "resses": 3601,
      "ĠApp": 3602,
      "ene": 3603,
      "Ġmedi": 3604,
      "Ġeffect": 3605,
      "ĠCan": 3606,
      "lint": 3607,
      "Ġrelease": 3608,
      "cols": 3609,
      "Ġlookup": 3610,
      "ength": 3611,
      "Ġrate": 3612,
      "Ġonce": 3613,
      "Ġpolicy": 3614,
      "Ġbackend": 3615,
      "dt": 3616,
      "Ġ200": 3617,
      "Ġreceived": 3618,
      "sid": 3619,
      "Or": 3620,
      "Ġdt": 3621,
      "environ": 3622,
      "variables": 3623,
      "termine": 3624,
      "Ġ):": 3625,
      "dims": 3626,
      "Ġvo": 3627,
      "ĠInvalid": 3628,
      "Ġabove": 3629,
      "Ġformatted": 3630,
      "remote": 3631,
      "erature": 3632,
      "DEFAULT": 3633,
      "Ġoperator": 3634,
      "Ġ(:": 3635,
      "norm": 3636,
      "auto": 3637,
      "trace": 3638,
      "lem": 3639,
      "served": 3640,
      "Ġtransl": 3641,
      "Ġwords": 3642,
      "Write": 3643,
      "events": 3644,
      "fetch": 3645,
      "Ġfa": 3646,
      "Ġrot": 3647,
      "lers": 3648,
      "ones": 3649,
      "pool": 3650,
      "ĠEach": 3651,
      "Ġmer": 3652,
      "Ġrepository": 3653,
      "required": 3654,
      "Ġhtml": 3655,
      "Ġconfi": 3656,
      "Ġwritten": 3657,
      "`:": 3658,
      "55": 3659,
      "uter": 3660,
      "Ġreason": 3661,
      "letion": 3662,
      "site": 3663,
      "Ġduring": 3664,
      "ĠBo": 3665,
      "cesses": 3666,
      "Ġthreshold": 3667,
      "container": 3668,
      "atches": 3669,
      "peration": 3670,
      "Ġupper": 3671,
      "sens": 3672,
      "\"))": 3673,
      "SH": 3674,
      "rain": 3675,
      "Ġmodules": 3676,
      "oken": 3677,
      "ulate": 3678,
      "Ġmanager": 3679,
      "inition": 3680,
      "alk": 3681,
      "UR": 3682,
      "cursor": 3683,
      "enu": 3684,
      "sq": 3685,
      "Map": 3686,
      "dirname": 3687,
      "ploy": 3688,
      "factor": 3689,
      "Ġedges": 3690,
      "expected": 3691,
      "Ġdetermin": 3692,
      "ons": 3693,
      "ĠĠĠĠĠĠĠĠĠ": 3694,
      "Ġuri": 3695,
      "confi": 3696,
      "states": 3697,
      "lab": 3698,
      "unique": 3699,
      "BU": 3700,
      "Ġanalysis": 3701,
      "resources": 3702,
      "stru": 3703,
      "endswith": 3704,
      "Ġprogress": 3705,
      "NS": 3706,
      "storage": 3707,
      "Ġdraw": 3708,
      "cluster": 3709,
      "Auth": 3710,
      "Ġredu": 3711,
      "arr": 3712,
      "fname": 3713,
      "Ġsql": 3714,
      "cab": 3715,
      "Ġattempt": 3716,
      "help": 3717,
      "lev": 3718,
      "stants": 3719,
      "cfg": 3720,
      "zero": 3721,
      "Te": 3722,
      "Ġ\"{": 3723,
      "cc": 3724,
      "}{": 3725,
      "Ġbranch": 3726,
      "vl": 3727,
      "Ġregex": 3728,
      "Ġchecks": 3729,
      "TH": 3730,
      "</": 3731,
      "Ġvalidation": 3732,
      "Ġroute": 3733,
      "als": 3734,
      "Ġsaved": 3735,
      "heet": 3736,
      "mapping": 3737,
      "units": 3738,
      "Ġyear": 3739,
      "LOG": 3740,
      "Ġbind": 3741,
      "light": 3742,
      "Ġtakes": 3743,
      "__)": 3744,
      "Sh": 3745,
      "GET": 3746,
      "logy": 3747,
      "std": 3748,
      "defaults": 3749,
      "Ġcredentials": 3750,
      "Ġscan": 3751,
      "....": 3752,
      "For": 3753,
      "ili": 3754,
      "ĠDE": 3755,
      "Ġverify": 3756,
      "sole": 3757,
      "oo": 3758,
      "}'": 3759,
      "andidate": 3760,
      "uch": 3761,
      "changed": 3762,
      "Ġconnected": 3763,
      "tokens": 3764,
      "okie": 3765,
      "({'": 3766,
      "()):": 3767,
      "imer": 3768,
      "modules": 3769,
      "FO": 3770,
      "Ġcompat": 3771,
      "Ġtermin": 3772,
      "Ġappend": 3773,
      "\"),": 3774,
      "ĊĠĠĠĠĠĠĠĠĠĠĠĠĠĠĠĠĠĠĠĠĠĠĠĠĠĠĠĠĠĠĠĠĠĠĠĠ": 3775,
      "14": 3776,
      "Ġdetermine": 3777,
      "Ġmak": 3778,
      "vidual": 3779,
      "force": 3780,
      "ality": 3781,
      "alias": 3782,
      "vide": 3783,
      "Ġknown": 3784,
      "osition": 3785,
      "undle": 3786,
      "ĠMet": 3787,
      "/%": 3788,
      "=%": 3789,
      "bind": 3790,
      "Ġexecution": 3791,
      "Ġversionadded": 3792,
      "example": 3793,
      "mediate": 3794,
      "ĠĠĠĠĠĠĠĠĠĠĠĠĠĠĠĠĠĠĠĠĠĠĠĠĠĠĠĠĠĠĠĠ": 3795,
      "Ġsimple": 3796,
      "Ġiterator": 3797,
      "Ġupload": 3798,
      "Hel": 3799,
      "times": 3800,
      "ied": 3801,
      "writ": 3802,
      "grade": 3803,
      "Ġsens": 3804,
      "prop": 3805,
      "sql": 3806,
      "Ġfname": 3807,
      "QU": 3808,
      "Ġwhose": 3809,
      "Ġshell": 3810,
      "application": 3811,
      "secret": 3812,
      "Ġside": 3813,
      "ĠInput": 3814,
      "čĊĠĠĠĠĠĠĠĠĠĠĠĠĠĠĠ": 3815,
      "tail": 3816,
      "align": 3817,
      "istics": 3818,
      "Ġkind": 3819,
      "KEY": 3820,
      "Ġorigin": 3821,
      "Ġcategory": 3822,
      "member": 3823,
      "effici": 3824,
      "Ġdeleted": 3825,
      "Di": 3826,
      "nan": 3827,
      "Ġdeco": 3828,
      "Ġ},": 3829,
      "Le": 3830,
      "Ġprivate": 3831,
      "ĠTh": 3832,
      "ntax": 3833,
      "Ġsetup": 3834,
      "Ġ_,": 3835,
      "Ġkernel": 3836,
      "ND": 3837,
      "Ġduplic": 3838,
      "('%": 3839,
      "Do": 3840,
      "Ġmachine": 3841,
      "CS": 3842,
      "()))": 3843,
      "ĠTrans": 3844,
      "Ġflow": 3845,
      "ĠUni": 3846,
      "Ġhead": 3847,
      "Ġspecification": 3848,
      "ĠNO": 3849,
      "Ġ16": 3850,
      "Ġsequences": 3851,
      "Ġ'--": 3852,
      "real": 3853,
      "orary": 3854,
      "display": 3855,
      "Connection": 3856,
      "release": 3857,
      "lookup": 3858,
      "uble": 3859,
      "Ġcy": 3860,
      "[:-": 3861,
      "Spe": 3862,
      "Ġtyp": 3863,
      "Ġreverse": 3864,
      "long": 3865,
      "edges": 3866,
      "Ġsubprocess": 3867,
      "Ġavoid": 3868,
      "Image": 3869,
      "havi": 3870,
      "ifier": 3871,
      "PRO": 3872,
      "filepath": 3873,
      "Ġauthentication": 3874,
      "clear": 3875,
      "Ġrelated": 3876,
      "ivalent": 3877,
      "include": 3878,
      "Ġinside": 3879,
      "ĊĠĠĠĠĠĠĠĠĠĠĠĠĠĠĠĠĠĠĠĠĠĠĠĠĠĠĠĠĠĠĠĠĠĠĠĠĠĠĠ": 3880,
      "jection": 3881,
      "install": 3882,
      "ĠHTML": 3883,
      "Ġreset": 3884,
      "agent": 3885,
      "ĠURI": 3886,
      "tool": 3887,
      "ĠObject": 3888,
      "Ġpylint": 3889,
      "HTTP": 3890,
      "cii": 3891,
      "NotFound": 3892,
      "Mo": 3893,
      "_.": 3894,
      "gories": 3895,
      "master": 3896,
      "Sets": 3897,
      "Ġworks": 3898,
      "'re": 3899,
      "ypes": 3900,
      "Ġidentifi": 3901,
      "(\"%": 3902,
      "flags": 3903,
      "clus": 3904,
      "()[": 3905,
      "iew": 3906,
      "Ġhy": 3907,
      "endpoint": 3908,
      "Ġinv": 3909,
      "extension": 3910,
      "Ġfmt": 3911,
      "Ġsnapshot": 3912,
      "ĠRead": 3913,
      "Ġ$": 3914,
      "policy": 3915,
      "tty": 3916,
      "56": 3917,
      "Ġslice": 3918,
      "coords": 3919,
      "Ġpick": 3920,
      "maining": 3921,
      "Ġeven": 3922,
      "Ġbegin": 3923,
      "Ġmight": 3924,
      "distance": 3925,
      "Input": 3926,
      "weights": 3927,
      "atory": 3928,
      "Resource": 3929,
      "ĠDictionary": 3930,
      "Ġstatement": 3931,
      "Ġarchive": 3932,
      "Ġcenter": 3933,
      "Ġmodified": 3934,
      "sep": 3935,
      "pter": 3936,
      "ancel": 3937,
      "interface": 3938,
      "Ġparticular": 3939,
      "Ġrespect": 3940,
      "Ġhex": 3941,
      "Ġhparams": 3942,
      "ĠPre": 3943,
      "Ġfinally": 3944,
      "Graph": 3945,
      "ention": 3946,
      "Ġenabled": 3947,
      "olved": 3948,
      "Content": 3949,
      "WS": 3950,
      "Ġsto": 3951,
      "dify": 3952,
      "lim": 3953,
      "Ġcalculate": 3954,
      "ĠArray": 3955,
      "Ġattrs": 3956,
      "Ġembed": 3957,
      "rf": 3958,
      "ĠDict": 3959,
      "CL": 3960,
      "cap": 3961,
      "Ġscalar": 3962,
      "Ġbar": 3963,
      "Ġtab": 3964,
      "','": 3965,
      "faces": 3966,
      "Ġtasks": 3967,
      "Ġput": 3968,
      "acy": 3969,
      "gb": 3970,
      "Ġdocumentation": 3971,
      "Status": 3972,
      "Ġuseful": 3973,
      "Ġmaster": 3974,
      "Ġdetect": 3975,
      "Ġbits": 3976,
      "ERR": 3977,
      "Default": 3978,
      "Ġreturning": 3979,
      "byte": 3980,
      "ĊĊĠĠĠĠĠĠĠĠĠĠĠĠĠĠĠĠĠĠĠ": 3981,
      "Ġcf": 3982,
      "CK": 3983,
      "CP": 3984,
      "IM": 3985,
      "fill": 3986,
      "Ġexpect": 3987,
      "Ġproblem": 3988,
      "period": 3989,
      "Ġusage": 3990,
      "dr": 3991,
      "mer": 3992,
      "inputs": 3993,
      "Ġmonth": 3994,
      "mitted": 3995,
      "Ġduration": 3996,
      "Ġhook": 3997,
      "HE": 3998,
      "Ġstderr": 3999,
      "UP": 4000,
      "Ġagent": 4001,
      "Ġfp": 4002,
      "ibility": 4003,
      "200": 4004,
      "Ġnested": 4005,
      "ĠPo": 4006,
      "Ġconstraint": 4007,
      "safe": 4008,
      "Filter": 4009,
      "Ġangle": 4010,
      "Ġfont": 4011,
      "Ġresulting": 4012,
      "}\\": 4013,
      "role": 4014,
      "Ġconfigured": 4015,
      "success": 4016,
      "database": 4017,
      "ĠRemove": 4018,
      "Ġ\"\\": 4019,
      "Tree": 4020,
      "miss": 4021,
      "plugin": 4022,
      "Ġyaml": 4023,
      "ynch": 4024,
      "www": 4025,
      "Ġpkg": 4026,
      "Ġfeed": 4027,
      "allel": 4028,
      "Ġown": 4029,
      "Ġprogram": 4030,
      "Ġfalse": 4031,
      "codes": 4032,
      "extract": 4033,
      "img": 4034,
      "ams": 4035,
      "admin": 4036,
      "ĠMake": 4037,
      "ĠReg": 4038,
      "Ġspecial": 4039,
      "specifi": 4040,
      "Ġtraining": 4041,
      "PATH": 4042,
      "liance": 4043,
      "Ġexact": 4044,
      "ĊĠĠĠĠĠĠĠĠĠĠĠĠĠĠĠĠĠĠĠĠĠĠĠĠĠĠĠĠĠĠĠĠĠĠĠĠĠ": 4045,
      "Ġmeasure": 4046,
      "Ġprovide": 4047,
      "partition": 4048,
      "counts": 4049,
      "property": 4050,
      "Ġmove": 4051,
      "DS": 4052,
      "fd": 4053,
      "vs": 4054,
      "ignore": 4055,
      "apped": 4056,
      "ogram": 4057,
      "rl": 4058,
      "dic": 4059,
      "Service": 4060,
      "Ġdiction": 4061,
      "Ġ[[": 4062,
      "Ġauthorization": 4063,
      "uff": 4064,
      "ĠNode": 4065,
      "He": 4066,
      "Given": 4067,
      "Ġ((": 4068,
      "IG": 4069,
      "-%": 4070,
      "changes": 4071,
      "Ġimplementation": 4072,
      "memory": 4073,
      "bed": 4074,
      "tz": 4075,
      "Ġstd": 4076,
      "Ġbelow": 4077,
      "Ġ``'": 4078,
      "Ġproper": 4079,
      "Ġsources": 4080,
      "Adds": 4081,
      "Ġwarnings": 4082,
      "sm": 4083,
      "Ġyet": 4084,
      "ĠĠĠĠĠĠĠĠĠĠ": 4085,
      "amma": 4086,
      "summary": 4087,
      "Ġworking": 4088,
      "sd": 4089,
      "Th": 4090,
      "assign": 4091,
      "Ġmatplotlib": 4092,
      "ATION": 4093,
      "pb": 4094,
      "Ġwarning": 4095,
      "tab": 4096,
      "Ġdataframe": 4097,
      "generate": 4098,
      "__.": 4099,
      "ni": 4100,
      "relation": 4101,
      "basename": 4102,
      "`)": 4103,
      "Ġexplicit": 4104,
      "uous": 4105,
      "alpha": 4106,
      "'](": 4107,
      "mplates": 4108,
      "fmt": 4109,
      "lin": 4110,
      "Ġ,": 4111,
      "Ġlogin": 4112,
      "Ġfigure": 4113,
      "custom": 4114,
      "after": 4115,
      "Ġtile": 4116,
      "ĠOpen": 4117,
      "Ġprocessing": 4118,
      "18": 4119,
      "Ġallows": 4120,
      "Ġincre": 4121,
      "Ġrules": 4122,
      "Ġmesh": 4123,
      "Ġ\\\\": 4124,
      "Ġitself": 4125,
      "Ġclear": 4126,
      "ĠId": 4127,
      "Ġkw": 4128,
      "ulti": 4129,
      "cipy": 4130,
      "Ġattach": 4131,
      "ynchron": 4132,
      "13": 4133,
      "Ġimg": 4134,
      "Ġvirtual": 4135,
      "Ġpercent": 4136,
      "Ġsimilar": 4137,
      "Stream": 4138,
      "web": 4139,
      "flag": 4140,
      "ough": 4141,
      "Ġcap": 4142,
      "Ġexpi": 4143,
      "tact": 4144,
      "Ġpipeline": 4145,
      "kind": 4146,
      "cd": 4147,
      "Ġ\"/": 4148,
      "Ġcoordinate": 4149,
      "Manager": 4150,
      "sorted": 4151,
      "Ġversions": 4152,
      "Clo": 4153,
      "On": 4154,
      "ĠRequest": 4155,
      "FILE": 4156,
      "Ġrank": 4157,
      "(\"\\": 4158,
      "Ġchannels": 4159,
      "oms": 4160,
      "Ġregistry": 4161,
      "ropy": 4162,
      "apply": 4163,
      "Ġregular": 4164,
      "aving": 4165,
      "ĠCall": 4166,
      "Ġincluding": 4167,
      "moot": 4168,
      "signal": 4169,
      "volume": 4170,
      "Ġworker": 4171,
      "Ġnone": 4172,
      "Function": 4173,
      "Ġasset": 4174,
      "andatory": 4175,
      "ression": 4176,
      "moves": 4177,
      "widget": 4178,
      "retry": 4179,
      "VAL": 4180,
      "Ġvariant": 4181,
      "Delete": 4182,
      "Ġsteps": 4183,
      "symbol": 4184,
      "Size": 4185,
      "Ġoutputs": 4186,
      "Ġfilepath": 4187,
      "rowser": 4188,
      "wh": 4189,
      "expr": 4190,
      "Ġarea": 4191,
      "Ġdot": 4192,
      "Ġprovider": 4193,
      "otential": 4194,
      "Ġcounter": 4195,
      "stit": 4196,
      "ĠSQL": 4197,
      "RA": 4198,
      "Ġpackages": 4199,
      "Ġmetrics": 4200,
      "ĠIDs": 4201,
      "60": 4202,
      "Ġcollect": 4203,
      "Ġ[(": 4204,
      "aged": 4205,
      "indows": 4206,
      "abel": 4207,
      "Ġoperations": 4208,
      "ĠCommand": 4209,
      "Link": 4210,
      "fail": 4211,
      "Ġblocks": 4212,
      "mac": 4213,
      "most": 4214,
      "defined": 4215,
      "Ġpers": 4216,
      "gree": 4217,
      "Extract": 4218,
      "language": 4219,
      "Ġindicating": 4220,
      "'\\": 4221,
      "sumer": 4222,
      "22": 4223,
      "ĠDis": 4224,
      "segment": 4225,
      "âĶĢâĶĢ": 4226,
      "ptions": 4227,
      "Ġrequires": 4228,
      "sleep": 4229,
      "Ġpower": 4230,
      "Ġnegative": 4231,
      "crypted": 4232,
      "umb": 4233,
      "Ġoverwrite": 4234,
      "ĠFind": 4235,
      "{}'.": 4236,
      "protocol": 4237,
      "Ġlet": 4238,
      "xx": 4239,
      "`):": 4240,
      "dat": 4241,
      "Ġnotification": 4242,
      "icro": 4243,
      "Store": 4244,
      "ĠCont": 4245,
      "yaml": 4246,
      "Ġretrie": 4247,
      "inished": 4248,
      "Send": 4249,
      "Ġless": 4250,
      "Ġcounts": 4251,
      "Ġdat": 4252,
      "Ġtoo": 4253,
      "Ġconsist": 4254,
      "From": 4255,
      "Ġprocessed": 4256,
      "Ġredirect": 4257,
      "verbose": 4258,
      "note": 4259,
      "Count": 4260,
      "MS": 4261,
      "pg": 4262,
      "ration": 4263,
      "sim": 4264,
      "Version": 4265,
      "Ġdependencies": 4266,
      "Ġbehavi": 4267,
      "rb": 4268,
      "Ġenable": 4269,
      "win": 4270,
      "ĠTensor": 4271,
      "Ġmembers": 4272,
      "Number": 4273,
      "Ġ-=": 4274,
      "login": 4275,
      "ife": 4276,
      "Ġstill": 4277,
      "Ġloc": 4278,
      "ui": 4279,
      "ilities": 4280,
      "filters": 4281,
      "AGE": 4282,
      "ural": 4283,
      "Ġquant": 4284,
      "ĠHand": 4285,
      "ĊĠĠĠĠĠĠĠĠĠĠĠĠĠĠĠĠĠĠĠĠĠĠĠĠĠĠĠĠĠĠĠĠĠĠĠĠĠĠ": 4286,
      "Ġindividual": 4287,
      "velo": 4288,
      "Record": 4289,
      "Ġcreating": 4290,
      "(-": 4291,
      "download": 4292,
      "17": 4293,
      "Ġ~": 4294,
      "xim": 4295,
      "Ġtopic": 4296,
      "Ġgit": 4297,
      "Retrieve": 4298,
      "steps": 4299,
      "ĠRun": 4300,
      "Ġengine": 4301,
      "rag": 4302,
      "track": 4303,
      "Ġdictionaries": 4304,
      "em": 4305,
      "Ġbel": 4306,
      "ĠIOError": 4307,
      "pix": 4308,
      "elements": 4309,
      "grees": 4310,
      "Ġrec": 4311,
      "Ġselection": 4312,
      "Ġplatform": 4313,
      "Code": 4314,
      "}/": 4315,
      "Ġtre": 4316,
      "contents": 4317,
      "month": 4318,
      "}\"": 4319,
      "Tag": 4320,
      "Compute": 4321,
      "Ġlow": 4322,
      "Ġknow": 4323,
      "tk": 4324,
      "ĠPO": 4325,
      "Point": 4326,
      "Ġsmall": 4327,
      "Ġhapp": 4328,
      "Ġmade": 4329,
      "vector": 4330,
      "complete": 4331,
      "sec": 4332,
      "Ġinspect": 4333,
      "compile": 4334,
      "modifi": 4335,
      "Ġast": 4336,
      "Ġorg": 4337,
      "Ġpositive": 4338,
      "()]": 4339,
      "Ġ\",": 4340,
      "ĠUpdate": 4341,
      "ĠSub": 4342,
      "Ġfall": 4343,
      "Ġseed": 4344,
      "Line": 4345,
      "slice": 4346,
      "Ġepoch": 4347,
      "icle": 4348,
      "deredDict": 4349,
      "regex": 4350,
      "ability": 4351,
      "itialize": 4352,
      "ferred": 4353,
      "mine": 4354,
      "Ġ%(": 4355,
      "home": 4356,
      "ues": 4357,
      "Ġactions": 4358,
      "ands": 4359,
      "factory": 4360,
      "()``": 4361,
      "Ġ//": 4362,
      "suffix": 4363,
      "Ġ20": 4364,
      "merge": 4365,
      "jor": 4366,
      "Ġtool": 4367,
      "Ġwrapped": 4368,
      "Ġvm": 4369,
      "precated": 4370,
      "uses": 4371,
      "Ġmac": 4372,
      "At": 4373,
      "Def": 4374,
      "dump": 4375,
      "vec": 4376,
      "ygon": 4377,
      "ĠHe": 4378,
      "SET": 4379,
      "tick": 4380,
      "ĠSo": 4381,
      "ĊĊĊĠĠĠ": 4382,
      "Ġlinks": 4383,
      "missing": 4384,
      "POST": 4385,
      "sage": 4386,
      "Ġcut": 4387,
      "ribe": 4388,
      "}}": 4389,
      "Ġcsv": 4390,
      "ĠLog": 4391,
      "UM": 4392,
      "axes": 4393,
      "Ġphase": 4394,
      "Ġatom": 4395,
      "If": 4396,
      "Ġradius": 4397,
      "Desc": 4398,
      "ĠĠĠĠĠĠĠĠĠĠĠĠ": 4399,
      "Ġreci": 4400,
      "=_": 4401,
      "arm": 4402,
      "Ġ\"{}": 4403,
      "Ġaround": 4404,
      "cid": 4405,
      "eries": 4406,
      "span": 4407,
      "Make": 4408,
      "ĠParse": 4409,
      "03": 4410,
      "ĠInt": 4411,
      "setup": 4412,
      "expand": 4413,
      "Ġpartial": 4414,
      "rer": 4415,
      "Ġequivalent": 4416,
      "ifest": 4417,
      "public": 4418,
      "]])": 4419,
      "Ġprimary": 4420,
      "catalog": 4421,
      "binary": 4422,
      "PTION": 4423,
      "tensor": 4424,
      "hich": 4425,
      "aves": 4426,
      "Ġmandatory": 4427,
      "Ġcolors": 4428,
      "Ġ'')": 4429,
      "Ġinterpol": 4430,
      "ava": 4431,
      "ĠTe": 4432,
      "udio": 4433,
      "Ġupdates": 4434,
      "fun": 4435,
      "Calculate": 4436,
      "Ġbounds": 4437,
      "ĠĠĠĠĠĠĠĠĠĠĠ": 4438,
      "Ġneighb": 4439,
      "Ġnormalized": 4440,
      "ABLE": 4441,
      "eno": 4442,
      "Ġnothing": 4443,
      "Command": 4444,
      "ited": 4445,
      "Ġener": 4446,
      "Ġpid": 4447,
      "ĠHow": 4448,
      "mbols": 4449,
      "Ġdirectories": 4450,
      "ender": 4451,
      "Ġaggreg": 4452,
      "ally": 4453,
      "Ġ'',": 4454,
      "Ġren": 4455,
      "Ġgene": 4456,
      "nn": 4457,
      "argv": 4458,
      "Print": 4459,
      "reset": 4460,
      "Ġfails": 4461,
      "Method": 4462,
      "ache": 4463,
      "gg": 4464,
      "ĠMax": 4465,
      "Bu": 4466,
      "sn": 4467,
      "ĠBase": 4468,
      "ĠĊĠĠĠ": 4469,
      "Date": 4470,
      "Ġreading": 4471,
      "auss": 4472,
      "oriz": 4473,
      "Ġlinear": 4474,
      "Ġpredict": 4475,
      "ATA": 4476,
      ".)": 4477,
      "lon": 4478,
      "wi": 4479,
      "crete": 4480,
      "Lay": 4481,
      "see": 4482,
      "Ġdecode": 4483,
      "Ġtargets": 4484,
      "IS": 4485,
      "ĠForm": 4486,
      "Entry": 4487,
      "ĠTra": 4488,
      "Ġsym": 4489,
      "urse": 4490,
      "cepts": 4491,
      "Ġlate": 4492,
      "otes": 4493,
      "ĠIter": 4494,
      "PS": 4495,
      "rand": 4496,
      "dient": 4497,
      "ocument": 4498,
      "Ġdim": 4499,
      "reshape": 4500,
      "press": 4501,
      "ky": 4502,
      "control": 4503,
      "layers": 4504,
      "Ġcompar": 4505,
      "Ġkeywords": 4506,
      "PU": 4507,
      "Ġservices": 4508,
      "caten": 4509,
      "Ġsafe": 4510,
      "Ġbuilt": 4511,
      "oot": 4512,
      "Ġchecked": 4513,
      "utor": 4514,
      "IC": 4515,
      "permission": 4516,
      "scan": 4517,
      "Ġfiltered": 4518,
      "mesh": 4519,
      "Ġlater": 4520,
      "Ġobserv": 4521,
      "Ġnormalize": 4522,
      "Ġflux": 4523,
      "('.": 4524,
      "Ġwrap": 4525,
      "Ġproto": 4526,
      "Ġnumeric": 4527,
      "ĠUT": 4528,
      "links": 4529,
      "etermine": 4530,
      "asis": 4531,
      "Ġdev": 4532,
      "tempts": 4533,
      "counter": 4534,
      "Attribute": 4535,
      "subject": 4536,
      "pkg": 4537,
      "('-": 4538,
      "pu": 4539,
      "Ġbackground": 4540,
      "Ġcla": 4541,
      "Ġcases": 4542,
      "ract": 4543,
      "irst": 4544,
      "Handle": 4545,
      "redu": 4546,
      "05": 4547,
      "XX": 4548,
      "Helper": 4549,
      "fp": 4550,
      "Int": 4551,
      "Ġjobs": 4552,
      "images": 4553,
      "86": 4554,
      "EM": 4555,
      "engine": 4556,
      "ula": 4557,
      "Ġhostname": 4558,
      "multi": 4559,
      "Ġdelimit": 4560,
      "Ġpadding": 4561,
      "Ġtables": 4562,
      "unch": 4563,
      "Ġ})": 4564,
      "forms": 4565,
      "Str": 4566,
      "iddle": 4567,
      "struction": 4568,
      "Ġconversion": 4569,
      "Ġdescriptor": 4570,
      "records": 4571,
      "TS": 4572,
      "emon": 4573,
      "none": 4574,
      "bro": 4575,
      "Ġtemperature": 4576,
      "Ġnorm": 4577,
      "serialize": 4578,
      "definition": 4579,
      "Ġadmin": 4580,
      "components": 4581,
      "onal": 4582,
      "Part": 4583,
      "ĠThere": 4584,
      "Ġround": 4585,
      "history": 4586,
      "Ġrecent": 4587,
      "Ġpur": 4588,
      "Ġparsing": 4589,
      "beta": 4590,
      "ĠFunction": 4591,
      "Ġbuf": 4592,
      "category": 4593,
      "--------------------------------": 4594,
      "Ġscheme": 4595,
      "Ġchunks": 4596,
      "75": 4597,
      "Ġindexes": 4598,
      "ynamic": 4599,
      "Source": 4600,
      "Ġcir": 4601,
      "Ġhour": 4602,
      "lying": 4603,
      "messages": 4604,
      "short": 4605,
      "Ġvectors": 4606,
      "compliance": 4607,
      "Ġlayout": 4608,
      "Ġdevices": 4609,
      "Ġassigned": 4610,
      "sen": 4611,
      "ĊĊ": 4612,
      "vas": 4613,
      "dirs": 4614,
      "sqrt": 4615,
      "iterable": 4616,
      "ared": 4617,
      "Ġdst": 4618,
      "common": 4619,
      "ks": 4620,
      "Ġprecision": 4621,
      "Ġrelations": 4622,
      "Ġ------": 4623,
      "sidered": 4624,
      "Ġpositions": 4625,
      "ube": 4626,
      "Ġsl": 4627,
      "strument": 4628,
      "Ġprev": 4629,
      "ORM": 4630,
      "View": 4631,
      "before": 4632,
      "ERROR": 4633,
      "eds": 4634,
      "ĠSeries": 4635,
      "ĠGener": 4636,
      "Ġgot": 4637,
      "ĠMust": 4638,
      "Ac": 4639,
      "tri": 4640,
      "Ġrepresents": 4641,
      "sup": 4642,
      "arguments": 4643,
      "Ġta": 4644,
      "Ġdicts": 4645,
      "MM": 4646,
      "Ġdump": 4647,
      "Ġcoeffici": 4648,
      "ascii": 4649,
      "oom": 4650,
      "Ġdid": 4651,
      "Ġconsidered": 4652,
      "ateway": 4653,
      "Ġisn": 4654,
      "bins": 4655,
      "ĊĊĠĠĠĠĠĠĠĠĠ": 4656,
      "Ġdrop": 4657,
      "Could": 4658,
      "commands": 4659,
      "echo": 4660,
      "chedul": 4661,
      "uman": 4662,
      "256": 4663,
      "Ġinterpre": 4664,
      "Ġmatched": 4665,
      "Ġiteration": 4666,
      "requests": 4667,
      "ĠImport": 4668,
      "kit": 4669,
      "ĠLoad": 4670,
      "UID": 4671,
      "Ġsomething": 4672,
      "Ġobtain": 4673,
      "backend": 4674,
      "users": 4675,
      "Ġcertificate": 4676,
      "Ġclosed": 4677,
      "Checks": 4678,
      "Ġexternal": 4679,
      "minion": 4680,
      "Ġappe": 4681,
      "component": 4682,
      "Ġ\"-": 4683,
      "Ad": 4684,
      "ĠOSError": 4685,
      "23": 4686,
      "channels": 4687,
      "ĠAc": 4688,
      "sources": 4689,
      "ĠDB": 4690,
      "Ġsecret": 4691,
      "lask": 4692,
      "čĊčĊĠĠĠĠĠĠĠ": 4693,
      "ga": 4694,
      "Ġsubset": 4695,
      "Ġdocstring": 4696,
      "blocks": 4697,
      "Ġschedule": 4698,
      "processing": 4699,
      "compute": 4700,
      "signature": 4701,
      "Server": 4702,
      "ĠQuery": 4703,
      ")])": 4704,
      "TIME": 4705,
      "const": 4706,
      "Ġactiv": 4707,
      "Ġgreater": 4708,
      "this": 4709,
      "ĠMo": 4710,
      "Ġartifact": 4711,
      "66": 4712,
      "Ġ[])": 4713,
      "ĠBuild": 4714,
      "days": 4715,
      "Ġ(%": 4716,
      "digest": 4717,
      "****": 4718,
      "Ġrepe": 4719,
      "ĠAdditional": 4720,
      "separ": 4721,
      "Ġsubscription": 4722,
      "Ġcollections": 4723,
      "rece": 4724,
      "Ġscre": 4725,
      "Fe": 4726,
      "Ġentire": 4727,
      "Ġcfg": 4728,
      "entries": 4729,
      "Ġsurface": 4730,
      "details": 4731,
      "single": 4732,
      "Ġreply": 4733,
      "Ġaverage": 4734,
      "ĠOne": 4735,
      "ĠGiven": 4736,
      "second": 4737,
      "structure": 4738,
      "Dec": 4739,
      "VI": 4740,
      "Job": 4741,
      "Ġtransition": 4742,
      "render": 4743,
      "nsure": 4744,
      "lag": 4745,
      "Ġcore": 4746,
      "Ġcalculated": 4747,
      "Ġâ": 4748,
      "cons": 4749,
      "]+": 4750,
      "members": 4751,
      "Ġsegments": 4752,
      "chan": 4753,
      "provider": 4754,
      "Ġmerged": 4755,
      "Ġfore": 4756,
      "Ġarr": 4757,
      "Ġatta": 4758,
      "Ġns": 4759,
      "ĠStart": 4760,
      "zy": 4761,
      "enabled": 4762,
      "tasks": 4763,
      "We": 4764,
      "ĠOperation": 4765,
      "Search": 4766,
      "Ġinner": 4767,
      ":`.": 4768,
      "Ġraises": 4769,
      "(__": 4770,
      "dated": 4771,
      "usters": 4772,
      "matches": 4773,
      "eval": 4774,
      "sem": 4775,
      "Ġshift": 4776,
      "Ġhig": 4777,
      "ACK": 4778,
      "orld": 4779,
      "alance": 4780,
      "ral": 4781,
      "Ġsetattr": 4782,
      "rency": 4783,
      ")}": 4784,
      "draw": 4785,
      "allet": 4786,
      "ever": 4787,
      "Ġseparate": 4788,
      "ttp": 4789,
      "archy": 4790,
      "\"].": 4791,
      "iteritems": 4792,
      "hostname": 4793,
      "condition": 4794,
      "ĠBe": 4795,
      "Ġmount": 4796,
      "font": 4797,
      "Ġpermissions": 4798,
      "lyph": 4799,
      "Ġassumed": 4800,
      "repr": 4801,
      "driver": 4802,
      "expression": 4803,
      "upported": 4804,
      "orn": 4805,
      "ĠError": 4806,
      "stract": 4807,
      "scal": 4808,
      "ront": 4809,
      "Ġactually": 4810,
      "Tra": 4811,
      "isfile": 4812,
      "running": 4813,
      "available": 4814,
      "HO": 4815,
      "ets": 4816,
      "route": 4817,
      "coordin": 4818,
      "Ċĉĉĉĉ": 4819,
      "eff": 4820,
      "created": 4821,
      "Ġunable": 4822,
      "ridge": 4823,
      "Ġspect": 4824,
      "Ġleg": 4825,
      ":\\": 4826,
      "Ġ`~": 4827,
      "Ġshared": 4828,
      "orizon": 4829,
      "'``": 4830,
      "Ġordered": 4831,
      "indent": 4832,
      "cm": 4833,
      "ulated": 4834,
      "Ġdriver": 4835,
      "System": 4836,
      "Ġsubclass": 4837,
      "Ġcatalog": 4838,
      "worker": 4839,
      "ĠClo": 4840,
      "found": 4841,
      "verify": 4842,
      "Ġspan": 4843,
      "generator": 4844,
      "freq": 4845,
      "hs": 4846,
      "ĠFilter": 4847,
      "Ġtemporary": 4848,
      "Ġgeometry": 4849,
      "threshold": 4850,
      "cript": 4851,
      "ĠImage": 4852,
      "ked": 4853,
      "Ġturn": 4854,
      "ĠMessage": 4855,
      "final": 4856,
      "Ġ[{": 4857,
      "\").": 4858,
      "Ġhistory": 4859,
      "Ġcreates": 4860,
      "={}": 4861,
      "Ġbins": 4862,
      "registry": 4863,
      "Ġ32": 4864,
      "VE": 4865,
      "Ġexperiment": 4866,
      "wards": 4867,
      "olds": 4868,
      "ĠResponse": 4869,
      "Ġthree": 4870,
      "outine": 4871,
      "pd": 4872,
      "astype": 4873,
      "Ġaltern": 4874,
      "SION": 4875,
      "Ġslot": 4876,
      "Ġpad": 4877,
      "Ġans": 4878,
      "Tensor": 4879,
      "Ġcomputed": 4880,
      "Ġtrigger": 4881,
      "branch": 4882,
      "product": 4883,
      "hood": 4884,
      "Ġworkflow": 4885,
      "cos": 4886,
      "Token": 4887,
      "proto": 4888,
      "lict": 4889,
      "ndim": 4890,
      "sync": 4891,
      "setdefault": 4892,
      "Ġsolution": 4893,
      "Ġexecuted": 4894,
      "Ġpixel": 4895,
      "Ġterms": 4896,
      "Ġdepending": 4897,
      "pture": 4898,
      "Ġsecurity": 4899,
      "integer": 4900,
      "ValueError": 4901,
      "ĠRet": 4902,
      "reader": 4903,
      "pus": 4904,
      "Ġswitch": 4905,
      "keyword": 4906,
      "Ġhelper": 4907,
      "Ġfixed": 4908,
      "uess": 4909,
      "Ġdefinitions": 4910,
      "invalid": 4911,
      "Aut": 4912,
      "Ġremaining": 4913,
      "gits": 4914,
      "ops": 4915,
      "Ġadjust": 4916,
      "ilio": 4917,
      "gt": 4918,
      "pandas": 4919,
      "platform": 4920,
      "Cannot": 4921,
      "Of": 4922,
      "hen": 4923,
      "cum": 4924,
      "direction": 4925,
      "Ġboto": 4926,
      "dl": 4927,
      "wrapper": 4928,
      "exclude": 4929,
      "letes": 4930,
      "ongo": 4931,
      "Ġmarker": 4932,
      "OS": 4933,
      "Ġnull": 4934,
      "boot": 4935,
      "__(": 4936,
      "Ġresolve": 4937,
      "ĊĊĊĠĠĠĠĠĠĠ": 4938,
      "Ġ{})": 4939,
      "ationError": 4940,
      "based": 4941,
      "prior": 4942,
      "Converts": 4943,
      "bank": 4944,
      "ĠWindows": 4945,
      "Ġsampling": 4946,
      "BUG": 4947,
      "Ġidentity": 4948,
      "frac": 4949,
      "Block": 4950,
      "Ġuuid": 4951,
      "false": 4952,
      "Ġ'__": 4953,
      "ĠCreates": 4954,
      "Ġnoise": 4955,
      "Ġ''.": 4956,
      "duration": 4957,
      "high": 4958,
      "Ġcells": 4959,
      "obs": 4960,
      "pm": 4961,
      "ĊĠĠĠĠĠĠĠĠĠĠĠĠĠĠĠĠĠĠĠĠĠĠĠĠĠĠĠĠĠĠĠĠĠĠĠĠĠĠĠĠĠ": 4962,
      "Ġdue": 4963,
      "Ġdeploy": 4964,
      "Ġdays": 4965,
      "quare": 4966,
      "tein": 4967,
      "SER": 4968,
      "lan": 4969,
      "Ġfilenames": 4970,
      "writer": 4971,
      "ised": 4972,
      "LIN": 4973,
      "gz": 4974,
      "ĠLOGGER": 4975,
      "atic": 4976,
      "ĠThese": 4977,
      "Ġrecursive": 4978,
      "Ġdoct": 4979,
      "Ġspecifying": 4980,
      "ĠModel": 4981,
      "gene": 4982,
      "Ġpotential": 4983,
      "ĠAss": 4984,
      "Ġcross": 4985,
      "ields": 4986,
      "Ġstatic": 4987,
      "cr": 4988,
      "utton": 4989,
      "Ġcandidate": 4990,
      "Ġdelay": 4991,
      "son": 4992,
      "ertain": 4993,
      "topic": 4994,
      "onical": 4995,
      "Ġsw": 4996,
      "Ġsparse": 4997,
      "colors": 4998,
      "hour": 4999,
      "SV": 5000,
      "ool": 5001,
      "enum": 5002,
      "Ġ15": 5003,
      "clar": 5004,
      "signed": 5005,
      "44": 5006,
      "Action": 5007,
      "shell": 5008,
      "andidates": 5009,
      "ĠIN": 5010,
      "Ġ{},": 5011,
      "Ġutil": 5012,
      "\"]:": 5013,
      "ĠState": 5014,
      "riteria": 5015,
      "abspath": 5016,
      "question": 5017,
      "Ġcurve": 5018,
      "AST": 5019,
      "Ġextracted": 5020,
      "Ġenergy": 5021,
      "Ġmd": 5022,
      "Ġunless": 5023,
      "Ġbig": 5024,
      "Ġbasestring": 5025,
      "oring": 5026,
      "Ġreader": 5027,
      "AML": 5028,
      "Ġbasic": 5029,
      "Ġdiag": 5030,
      "Ġvide": 5031,
      "clusive": 5032,
      "cio": 5033,
      "rong": 5034,
      "ond": 5035,
      "Ġdefine": 5036,
      "ada": 5037,
      "packages": 5038,
      "Ġreads": 5039,
      "operation": 5040,
      "Sign": 5041,
      "Ġtick": 5042,
      "Ġconstructor": 5043,
      "bam": 5044,
      "ĠTuple": 5045,
      "FIG": 5046,
      "Ġpixels": 5047,
      "loss": 5048,
      "Ġreferences": 5049,
      "ĠNew": 5050,
      "Parameters": 5051,
      "Ġpipe": 5052,
      "bounds": 5053,
      "serve": 5054,
      "ĠShould": 5055,
      "services": 5056,
      "ĠNe": 5057,
      "Ġ))": 5058,
      "Ġintegers": 5059,
      "iler": 5060,
      "pad": 5061,
      "itable": 5062,
      "Ġunknown": 5063,
      "ssl": 5064,
      "Ġthreads": 5065,
      "Ġsat": 5066,
      "proc": 5067,
      "Ġanaly": 5068,
      "cover": 5069,
      "ĠAt": 5070,
      "ĠSh": 5071,
      "ĠGraph": 5072,
      "Ġconstant": 5073,
      "}:": 5074,
      "Ġconv": 5075,
      "Ġgoogle": 5076,
      "percent": 5077,
      "area": 5078,
      "ENT": 5079,
      "scape": 5080,
      "Ġowner": 5081,
      "78": 5082,
      "lished": 5083,
      "ASE": 5084,
      "OK": 5085,
      "ZE": 5086,
      "iver": 5087,
      "lott": 5088,
      "inner": 5089,
      "illar": 5090,
      "layout": 5091,
      "Ġds": 5092,
      "rot": 5093,
      "ider": 5094,
      "GB": 5095,
      "Ġlatest": 5096,
      "orter": 5097,
      "pers": 5098,
      "assessment": 5099,
      "Ġtimezone": 5100,
      "SU": 5101,
      "__.__": 5102,
      "ully": 5103,
      "cogn": 5104,
      "ĠKeyword": 5105,
      "ĠUsed": 5106,
      "Ġ1000": 5107,
      "Ġcomplex": 5108,
      "fasta": 5109,
      "atom": 5110,
      "Ġannotation": 5111,
      "OL": 5112,
      "Ġpr": 5113,
      "Ġsensor": 5114,
      "ĠInter": 5115,
      "Unknown": 5116,
      "Ġconver": 5117,
      "Ġencode": 5118,
      "ka": 5119,
      "Ġprompt": 5120,
      "Ġserialized": 5121,
      "ynchronous": 5122,
      "Task": 5123,
      "Ġasync": 5124,
      "ĊĠĠĠĠĠĠĠĠĠĠĠĠĠĠĠĠĠĠĠĠĠĠĠĠĠĠĠĠĠĠĠĠĠĠĠĠĠĠĠĠĠĠĠ": 5125,
      "voke": 5126,
      "done": 5127,
      "correct": 5128,
      "Ġmultip": 5129,
      "Ġconditions": 5130,
      "itespace": 5131,
      "stmt": 5132,
      "Ġcaller": 5133,
      "metrics": 5134,
      "Ġvertex": 5135,
      "Open": 5136,
      "Ġcertain": 5137,
      "Ġsubnet": 5138,
      "Unable": 5139,
      "UE": 5140,
      "ti": 5141,
      "Ġbutton": 5142,
      ".\",": 5143,
      "Ġframes": 5144,
      "Warning": 5145,
      "ffici": 5146,
      "([[": 5147,
      "unic": 5148,
      "connected": 5149,
      "Ġboot": 5150,
      "Parameter": 5151,
      "targets": 5152,
      ")).": 5153,
      "Ġcontroller": 5154,
      "asset": 5155,
      "resp": 5156,
      "Ġaddresses": 5157,
      "Ġimmediate": 5158,
      "Ġrefresh": 5159,
      "Ġmut": 5160,
      "09": 5161,
      "Ġ\"--": 5162,
      "Ġchecking": 5163,
      "SL": 5164,
      "Ġcb": 5165,
      "transaction": 5166,
      "ools": 5167,
      "edia": 5168,
      "Ġ'<": 5169,
      "Ġada": 5170,
      "activ": 5171,
      "Ġbad": 5172,
      "Ġcloud": 5173,
      ":])": 5174,
      "gent": 5175,
      "progress": 5176,
      "yncio": 5177,
      "ĠNetwork": 5178,
      "strings": 5179,
      "Ġloss": 5180,
      "lastic": 5181,
      "Ġ[],": 5182,
      "coming": 5183,
      "cluded": 5184,
      "Ġcompare": 5185,
      "orth": 5186,
      "ports": 5187,
      "estim": 5188,
      "cryption": 5189,
      "ampler": 5190,
      "unpack": 5191,
      "Ġsigned": 5192,
      "=['": 5193,
      "istration": 5194,
      "ently": 5195,
      "sock": 5196,
      "posed": 5197,
      "tainer": 5198,
      "Act": 5199,
      "DD": 5200,
      "Ġrelation": 5201,
      "Ġpeer": 5202,
      "aN": 5203,
      "ĠFirst": 5204,
      "rectory": 5205,
      "endar": 5206,
      "II": 5207,
      "rupt": 5208,
      "Ġratio": 5209,
      "Ġpatterns": 5210,
      "Box": 5211,
      "ueue": 5212,
      "ĠText": 5213,
      "Level": 5214,
      "require": 5215,
      "cial": 5216,
      "']))": 5217,
      "(\\": 5218,
      "Ġintegr": 5219,
      "dst": 5220,
      "Implemented": 5221,
      "boolean": 5222,
      "alf": 5223,
      "pdf": 5224,
      "ĠOrderedDict": 5225,
      "Ġadding": 5226,
      "configuration": 5227,
      "sym": 5228,
      "Column": 5229,
      "lip": 5230,
      "istic": 5231,
      "Ġfreq": 5232,
      "PRE": 5233,
      "Ġgu": 5234,
      "ĠClient": 5235,
      "Ġmodify": 5236,
      "Ġpriority": 5237,
      "Ġfact": 5238,
      "Ġruns": 5239,
      "ĠNum": 5240,
      "ĠRec": 5241,
      "skip": 5242,
      "Ġaudio": 5243,
      "irs": 5244,
      "ĠMethod": 5245,
      "compat": 5246,
      "ĠTable": 5247,
      "END": 5248,
      "ĠWill": 5249,
      "Ġaddr": 5250,
      "iteral": 5251,
      "frames": 5252,
      "Ġresid": 5253,
      "ĠWork": 5254,
      "Exist": 5255,
      "Ġseen": 5256,
      "adr": 5257,
      "inf": 5258,
      "Ġstrict": 5259,
      "sect": 5260,
      "Save": 5261,
      "rypt": 5262,
      "Ġcover": 5263,
      "Ġforward": 5264,
      "Ġ::": 5265,
      "Ġcols": 5266,
      "coder": 5267,
      "Ġlin": 5268,
      "Ġlead": 5269,
      "Ġ),": 5270,
      "perty": 5271,
      "origin": 5272,
      "variant": 5273,
      "Ġsuccessfully": 5274,
      "rum": 5275,
      "Ġwa": 5276,
      "ĠVM": 5277,
      "Ġconnections": 5278,
      "So": 5279,
      "encoded": 5280,
      "Ġpatch": 5281,
      "ison": 5282,
      "Ġruntime": 5283,
      "]],": 5284,
      "zen": 5285,
      "ĠGenerate": 5286,
      "lier": 5287,
      "Ġtwilio": 5288,
      "hot": 5289,
      "Ref": 5290,
      "Ġlocations": 5291,
      "levant": 5292,
      "YY": 5293,
      "={'": 5294,
      "drop": 5295,
      "Ġrect": 5296,
      "wo": 5297,
      "Address": 5298,
      "Ġscipy": 5299,
      "ific": 5300,
      "Ġwin": 5301,
      "iling": 5302,
      "(?": 5303,
      "Ġdegrees": 5304,
      "\"][\"": 5305,
      "ĠĠĠĠĠĠĠĠĠĠĠĠĠĠ": 5306,
      "ĠOutput": 5307,
      "rieves": 5308,
      "Over": 5309,
      "mar": 5310,
      "tile": 5311,
      "Ġstarts": 5312,
      "construct": 5313,
      "Ġplugins": 5314,
      "configs": 5315,
      "Ġstatements": 5316,
      "Ġbehavior": 5317,
      "anded": 5318,
      "Ġones": 5319,
      "Ġcreation": 5320,
      "Ġincludes": 5321,
      "ĠSpecifi": 5322,
      "Ġindicates": 5323,
      "Ġ(``": 5324,
      "isdir": 5325,
      "Ġparallel": 5326,
      "ĠFI": 5327,
      "Api": 5328,
      "Ġperformed": 5329,
      "Dataset": 5330,
      "Ġprocesses": 5331,
      "Ġcontained": 5332,
      "snapshot": 5333,
      "variance": 5334,
      "wn": 5335,
      "private": 5336,
      "Ġdependency": 5337,
      "Cell": 5338,
      "FS": 5339,
      "Output": 5340,
      "mut": 5341,
      "']]": 5342,
      "ĠAd": 5343,
      "gether": 5344,
      "Ġstarted": 5345,
      "ASS": 5346,
      "orator": 5347,
      "Ġgets": 5348,
      "ĠIndexError": 5349,
      "Ġtaken": 5350,
      "aussian": 5351,
      "pred": 5352,
      "scheme": 5353,
      "ulk": 5354,
      "=-": 5355,
      "virt": 5356,
      "Pa": 5357,
      "appings": 5358,
      "Sequence": 5359,
      "etter": 5360,
      "ĠCurrent": 5361,
      "pice": 5362,
      "authentic": 5363,
      "35": 5364,
      "Ġstrip": 5365,
      "INT": 5366,
      "Device": 5367,
      "ĠPermission": 5368,
      "arange": 5369,
      "ĠNOTE": 5370,
      "Ġtar": 5371,
      "Ġcast": 5372,
      "aps": 5373,
      "LL": 5374,
      "Ġflatten": 5375,
      "ĊĠĠĠĠĠĠĠĠĠĠĠĠĠĠĠĠĠĠĠĠĠĠĠĠĠĠĠĠĠĠĠĠĠĠĠĠĠĠĠĠĠĠ": 5376,
      "36": 5377,
      "Ġfactory": 5378,
      "upload": 5379,
      "simp": 5380,
      "chor": 5381,
      "viation": 5382,
      "Ġ30": 5383,
      "Ġlogs": 5384,
      "library": 5385,
      "sur": 5386,
      "family": 5387,
      "erred": 5388,
      "Ġio": 5389,
      "LAN": 5390,
      "cu": 5391,
      "flush": 5392,
      "Validate": 5393,
      "Connect": 5394,
      "Ġrequirements": 5395,
      "dit": 5396,
      "parsed": 5397,
      "archive": 5398,
      "Ġprobability": 5399,
      "Ġfs": 5400,
      "arest": 5401,
      "uint": 5402,
      "_)": 5403,
      ")'": 5404,
      "nb": 5405,
      "Ġstatistics": 5406,
      "ĠNull": 5407,
      "ACE": 5408,
      "inv": 5409,
      "predi": 5410,
      "cheduler": 5411,
      "failed": 5412,
      "Ġcomments": 5413,
      "Serial": 5414,
      "izing": 5415,
      "Ġscreen": 5416,
      "Ra": 5417,
      "nitude": 5418,
      "Ġinstant": 5419,
      "Layer": 5420,
      "den": 5421,
      "refresh": 5422,
      "Ġoptionally": 5423,
      "flux": 5424,
      "ĠMaximum": 5425,
      "Ġden": 5426,
      "bos": 5427,
      "Ġmakes": 5428,
      "ĠOperationFailed": 5429,
      "(',": 5430,
      "Variable": 5431,
      "hy": 5432,
      "free": 5433,
      "Ġcard": 5434,
      "Ġmedia": 5435,
      "Ġ\"_": 5436,
      "equal": 5437,
      "Ġsigma": 5438,
      "ranscript": 5439,
      "Ġvideo": 5440,
      "CONFIG": 5441,
      "Work": 5442,
      "Ġ(`": 5443,
      ")``": 5444,
      "Ġts": 5445,
      "Ġmass": 5446,
      "Ġdeprecated": 5447,
      "imal": 5448,
      "sigma": 5449,
      "\\'": 5450,
      "adcast": 5451,
      "ĠSy": 5452,
      "Download": 5453,
      "owner": 5454,
      "70": 5455,
      "SD": 5456,
      "rr": 5457,
      "attach": 5458,
      "Ġ19": 5459,
      "amo": 5460,
      "Ġgive": 5461,
      "export": 5462,
      "---+": 5463,
      "delay": 5464,
      "alth": 5465,
      "plan": 5466,
      "atial": 5467,
      "Ġpreviously": 5468,
      "39": 5469,
      "End": 5470,
      "Ġtz": 5471,
      "calc": 5472,
      "Ġvertices": 5473,
      ")\"": 5474,
      "embed": 5475,
      "Ġpages": 5476,
      "quote": 5477,
      "epcopy": 5478,
      "Ġfree": 5479,
      "Ġwhole": 5480,
      "Ġunderlying": 5481,
      "utdown": 5482,
      "MENT": 5483,
      "Ġlayers": 5484,
      "Ġdoctest": 5485,
      "Ġrotation": 5486,
      "seed": 5487,
      "expi": 5488,
      "ĠMark": 5489,
      "Ġanything": 5490,
      "orizontal": 5491,
      "epoch": 5492,
      "ALL": 5493,
      "constraint": 5494,
      "rules": 5495,
      "bi": 5496,
      "STR": 5497,
      "ĠQt": 5498,
      "mk": 5499,
      "Ġlongitude": 5500,
      "Ġderived": 5501,
      "FC": 5502,
      "Ġ60": 5503,
      "uest": 5504,
      "Ġmot": 5505,
      "Ġstage": 5506,
      "disk": 5507,
      "Ġpag": 5508,
      "Ġscores": 5509,
      "Logger": 5510,
      "lec": 5511,
      "operator": 5512,
      "Ġlatitude": 5513,
      "ription": 5514,
      "84": 5515,
      "ORD": 5516,
      "functions": 5517,
      "iate": 5518,
      "Ġtransport": 5519,
      "partial": 5520,
      "urations": 5521,
      "Ġdifference": 5522,
      "Ġreplaced": 5523,
      "Ġredis": 5524,
      "original": 5525,
      "PAR": 5526,
      "Ġlevels": 5527,
      "Pl": 5528,
      "ĠBoolean": 5529,
      "ĠNotImplemented": 5530,
      "Ġpublish": 5531,
      "hosts": 5532,
      "Ġlarge": 5533,
      "mass": 5534,
      "Ġcost": 5535,
      "Widget": 5536,
      "Ġplay": 5537,
      "DIR": 5538,
      "ish": 5539,
      "ĠUnicode": 5540,
      "comb": 5541,
      "internal": 5542,
      "Ġfully": 5543,
      "loader": 5544,
      "Row": 5545,
      "AA": 5546,
      "ĠElement": 5547,
      "refs": 5548,
      "Test": 5549,
      "selection": 5550,
      "strap": 5551,
      "ssh": 5552,
      "rant": 5553,
      "Ġexamples": 5554,
      "Ġonto": 5555,
      "='',": 5556,
      "Ġfloats": 5557,
      "ritical": 5558,
      "Ġgeo": 5559,
      "Ġwriter": 5560,
      "################": 5561,
      "sto": 5562,
      ")*": 5563,
      "Ġsync": 5564,
      "lihood": 5565,
      "Ġpress": 5566,
      "'},": 5567,
      "Ġplott": 5568,
      "Ġsmoot": 5569,
      "rences": 5570,
      "Ġeas": 5571,
      "bitrary": 5572,
      "Ġuid": 5573,
      "dependent": 5574,
      "Ġalt": 5575,
      "ĠPOST": 5576,
      "png": 5577,
      "coord": 5578,
      "Ġrout": 5579,
      "ĠWrite": 5580,
      "inish": 5581,
      "PER": 5582,
      "ĠOver": 5583,
      "calcul": 5584,
      "atrix": 5585,
      "ty": 5586,
      "Ġcoords": 5587,
      "pology": 5588,
      "machine": 5589,
      "Ġcountry": 5590,
      "Ġsimply": 5591,
      "park": 5592,
      "Ġconsole": 5593,
      "Ġdouble": 5594,
      "FL": 5595,
      "Ġvocab": 5596,
      "ARN": 5597,
      "derer": 5598,
      "Ġsec": 5599,
      "Ġcodes": 5600,
      "semble": 5601,
      "Ġnotebook": 5602,
      "seek": 5603,
      "roy": 5604,
      "Ġlisten": 5605,
      "rase": 5606,
      "inder": 5607,
      "Ġdocker": 5608,
      "dence": 5609,
      "ĠField": 5610,
      "instances": 5611,
      "Ġexplicitly": 5612,
      "chemy": 5613,
      "Ġformats": 5614,
      "Ġsca": 5615,
      "Ġmx": 5616,
      "')]": 5617,
      "Ġexecutable": 5618,
      "static": 5619,
      "Ġready": 5620,
      "glob": 5621,
      "Ġdocs": 5622,
      "feed": 5623,
      "Ġadds": 5624,
      "override": 5625,
      "reduce": 5626,
      "ace": 5627,
      "ience": 5628,
      "Ġtogether": 5629,
      "handlers": 5630,
      "Ġstmt": 5631,
      "Ġhard": 5632,
      "Ġdecimal": 5633,
      "ĠEnt": 5634,
      "Ġhosts": 5635,
      "Register": 5636,
      "Ġep": 5637,
      "Ġglob": 5638,
      "Ġcookie": 5639,
      "')[": 5640,
      "ĠResource": 5641,
      "pairs": 5642,
      "Ġqual": 5643,
      "Ġsupports": 5644,
      "utc": 5645,
      "Ġord": 5646,
      "PY": 5647,
      "hat": 5648,
      "ĠST": 5649,
      "Ġretrieved": 5650,
      "Ġfd": 5651,
      "semb": 5652,
      "Ġfoo": 5653,
      "mes": 5654,
      "Ġbundle": 5655,
      "best": 5656,
      "ptr": 5657,
      "Ġshutil": 5658,
      "Ġsn": 5659,
      "pipeline": 5660,
      "'\"": 5661,
      "sr": 5662,
      "atter": 5663,
      "Ġelem": 5664,
      "ĠGroup": 5665,
      "Ġqueryset": 5666,
      "Ġiterations": 5667,
      "jac": 5668,
      "Ġrespon": 5669,
      "Ġhandling": 5670,
      "Ġtraceback": 5671,
      "ĠResult": 5672,
      ".',": 5673,
      "tle": 5674,
      "power": 5675,
      "SA": 5676,
      "inary": 5677,
      "anization": 5678,
      "ĠCompute": 5679,
      ".'''": 5680,
      "Ġpassing": 5681,
      "Collection": 5682,
      ".'.": 5683,
      "Sy": 5684,
      "Ġsender": 5685,
      "('_": 5686,
      "ba": 5687,
      "outputs": 5688,
      "Ġrather": 5689,
      "cached": 5690,
      "Ġattached": 5691,
      "rites": 5692,
      "Ġedit": 5693,
      "FT": 5694,
      "dx": 5695,
      "ja": 5696,
      "Ġsli": 5697,
      "ident": 5698,
      "callable": 5699,
      "which": 5700,
      "radius": 5701,
      "Ġprevent": 5702,
      "pick": 5703,
      "Ġdetermined": 5704,
      "pied": 5705,
      "unct": 5706,
      "ĠGET": 5707,
      "Ġacross": 5708,
      "Ġdocuments": 5709,
      "Ġbottom": 5710,
      "Ġinplace": 5711,
      "Ġoverrid": 5712,
      "Ġ[-": 5713,
      "atting": 5714,
      "cwd": 5715,
      "Ġspa": 5716,
      "Ġresolution": 5717,
      "Ġpay": 5718,
      "oked": 5719,
      "Ġindicate": 5720,
      "wb": 5721,
      "Ġblob": 5722,
      "Access": 5723,
      "related": 5724,
      "Ġhappen": 5725,
      "ategy": 5726,
      "nl": 5727,
      "Ġeig": 5728,
      "geo": 5729,
      "linear": 5730,
      "tables": 5731,
      "Ġexpand": 5732,
      "ached": 5733,
      "fin": 5734,
      "Ġvol": 5735,
      "diag": 5736,
      "Ġdecorated": 5737,
      "Params": 5738,
      "Ġwriting": 5739,
      "Ġalignment": 5740,
      "pan": 5741,
      "Ġmapped": 5742,
      "BO": 5743,
      "car": 5744,
      "ĠProcess": 5745,
      "Ġdescribing": 5746,
      "emit": 5747,
      "Ġband": 5748,
      "Ġaccepted": 5749,
      "_(": 5750,
      "Ġpending": 5751,
      "ips": 5752,
      "cpu": 5753,
      "ism": 5754,
      "Ġkeyid": 5755,
      "Ġface": 5756,
      "Ġsep": 5757,
      "Ġdelimiter": 5758,
      "NE": 5759,
      "Red": 5760,
      "Ġoverlap": 5761,
      "mas": 5762,
      "usage": 5763,
      "docker": 5764,
      "tour": 5765,
      "LETE": 5766,
      "Ġinitialized": 5767,
      "Ġdownloaded": 5768,
      "supported": 5769,
      "Ġexpr": 5770,
      "Ġbook": 5771,
      "plugins": 5772,
      "Ġlonger": 5773,
      "Ġidentify": 5774,
      "prog": 5775,
      "Ġes": 5776,
      "Ġpretty": 5777,
      "90": 5778,
      "ĠDef": 5779,
      "ĠHandle": 5780,
      "Ġ')": 5781,
      "sw": 5782,
      "DATA": 5783,
      "Ġprojection": 5784,
      "sertion": 5785,
      "ĠĊĠĠĠĠĠĠĠĠĠĠĠ": 5786,
      "covery": 5787,
      "Ġcompletion": 5788,
      "Reference": 5789,
      "slug": 5790,
      "ragma": 5791,
      "Com": 5792,
      "Ġmix": 5793,
      "Spec": 5794,
      "holder": 5795,
      "Ġthrow": 5796,
      "relations": 5797,
      "Ġapproxim": 5798,
      "Ġduplicate": 5799,
      "Ġseparated": 5800,
      "Ġtranslation": 5801,
      "Ġrestart": 5802,
      "amer": 5803,
      "typ": 5804,
      "isters": 5805,
      "selected": 5806,
      "cn": 5807,
      "%(": 5808,
      "devices": 5809,
      "ĠISO": 5810,
      ".\\": 5811,
      "Parses": 5812,
      "ird": 5813,
      "transl": 5814,
      "Ġbasis": 5815,
      "sections": 5816,
      "naif": 5817,
      "urls": 5818,
      "Ġrepr": 5819,
      "Ġsol": 5820,
      "ĠRed": 5821,
      "credentials": 5822,
      "ssib": 5823,
      "INFO": 5824,
      "JSON": 5825,
      "Network": 5826,
      "Ġnb": 5827,
      "Ġvery": 5828,
      "``:": 5829,
      "subprocess": 5830,
      "begin": 5831,
      "ĠImportError": 5832,
      "Ġfamily": 5833,
      "Ġps": 5834,
      "ĠEvent": 5835,
      "acity": 5836,
      "choice": 5837,
      "Ġdates": 5838,
      "Ġpointer": 5839,
      "ĠGo": 5840,
      "Ġbeginning": 5841,
      "logical": 5842,
      "shift": 5843,
      "itation": 5844,
      "{}\".": 5845,
      "29": 5846,
      "Ġoutfile": 5847,
      "ĊĠĠĠĠĠĠĠĠĠĠĠĠĠĠĠĠĠĠĠĠĠĠĠĠĠĠĠĠĠĠĠĠĠĠĠĠĠĠĠĠĠĠĠĠ": 5848,
      "iso": 5849,
      "ĠMin": 5850,
      "Ġconstraints": 5851,
      "Plot": 5852,
      "Use": 5853,
      "]*": 5854,
      "ired": 5855,
      "ĊĊĠĠĠĠĠĠĠĠĠĠ": 5856,
      "Ġunpack": 5857,
      "dn": 5858,
      "conv": 5859,
      "osen": 5860,
      "Pack": 5861,
      "fact": 5862,
      "ov": 5863,
      "Ġcompleted": 5864,
      "constants": 5865,
      "Ġpeak": 5866,
      "enari": 5867,
      "Ġgood": 5868,
      "icip": 5869,
      "Ġdjango": 5870,
      "rpc": 5871,
      "slot": 5872,
      "esian": 5873,
      "Ġhuman": 5874,
      "neighb": 5875,
      "ĠNullArgument": 5876,
      "amount": 5877,
      "Ġvalidator": 5878,
      "=\"\"": 5879,
      "Can": 5880,
      "uation": 5881,
      "stall": 5882,
      "Ġqueries": 5883,
      "methods": 5884,
      "ado": 5885,
      "venience": 5886,
      "Ġnever": 5887,
      "ĠAut": 5888,
      "antity": 5889,
      "Construct": 5890,
      "Ġdatasets": 5891,
      "big": 5892,
      "ĊĊĠĠĠĠĠĠ": 5893,
      "FORM": 5894,
      "Ġproc": 5895,
      "Ġrdf": 5896,
      "dimensional": 5897,
      "NG": 5898,
      "media": 5899,
      "nail": 5900,
      "Ġcontract": 5901,
      "Ġ':": 5902,
      "blob": 5903,
      "Perform": 5904,
      "77": 5905,
      "runtime": 5906,
      "Ġ?": 5907,
      "kernel": 5908,
      "predict": 5909,
      "Ġprice": 5910,
      "mu": 5911,
      "Pol": 5912,
      "break": 5913,
      "Ġdensity": 5914,
      "week": 5915,
      "Metadata": 5916,
      "analysis": 5917,
      "modified": 5918,
      "-+-+-+-+-+-+-+-+-+-+-+-+-+-+-+-+": 5919,
      "Ver": 5920,
      "reen": 5921,
      "indexes": 5922,
      "58": 5923,
      "Ġssh": 5924,
      "Ġenviron": 5925,
      "Ġgradient": 5926,
      "cce": 5927,
      "------------": 5928,
      "Ġutool": 5929,
      "ensors": 5930,
      "Ġfraction": 5931,
      "Obj": 5932,
      "Ġinitialize": 5933,
      "DU": 5934,
      "vol": 5935,
      "cify": 5936,
      "rstrip": 5937,
      "editor": 5938,
      "Ġblank": 5939,
      "environment": 5940,
      "Ġdegree": 5941,
      "tack": 5942,
      "Ġsending": 5943,
      "_:": 5944,
      "allable": 5945,
      "Ġobs": 5946,
      "lapsed": 5947,
      "``)": 5948,
      "lecule": 5949,
      "SK": 5950,
      "attention": 5951,
      ">,": 5952,
      "atype": 5953,
      "security": 5954,
      "Ġbeta": 5955,
      "Ġdro": 5956,
      "rive": 5957,
      "normalize": 5958,
      "mq": 5959,
      "workflow": 5960,
      "Timeout": 5961,
      "Ġseparator": 5962,
      "prepare": 5963,
      "Ġintervals": 5964,
      "Ġspaces": 5965,
      "mlink": 5966,
      "Ġconsider": 5967,
      "oto": 5968,
      "Ġchrom": 5969,
      "Ġprepare": 5970,
      "builder": 5971,
      "Ġminutes": 5972,
      "qa": 5973,
      "~~": 5974,
      "reverse": 5975,
      "Den": 5976,
      "MI": 5977,
      "istent": 5978,
      "pages": 5979,
      "Ġfilesystem": 5980,
      "Ġmaps": 5981,
      "tar": 5982,
      "Ġsever": 5983,
      "ĠMulti": 5984,
      "Ġextensions": 5985,
      "Ġhidden": 5986,
      "Ġ<<": 5987,
      "ĠSearch": 5988,
      "ĠStr": 5989,
      "prompt": 5990,
      "DEBUG": 5991,
      "Ġspeed": 5992,
      "reason": 5993,
      "Ġtrunc": 5994,
      "\"\\": 5995,
      "Vector": 5996,
      "Ġdigest": 5997,
      "Ġchecksum": 5998,
      "Ġshare": 5999,
      "Ġimmediately": 6000,
      "Cur": 6001,
      "compress": 6002,
      "closed": 6003,
      "phi": 6004,
      "rigger": 6005,
      "All": 6006,
      "PL": 6007,
      "inger": 6008,
      "SIZE": 6009,
      "Thread": 6010,
      ".\".": 6011,
      "()`": 6012,
      "ĠUsage": 6013,
      "soft": 6014,
      "walk": 6015,
      "decor": 6016,
      "ĠStop": 6017,
      "ĠPass": 6018,
      "255": 6019,
      "reply": 6020,
      ")/": 6021,
      "iet": 6022,
      "quires": 6023,
      "Ġrelevant": 6024,
      "Ġreceive": 6025,
      "1000": 6026,
      "Ġnan": 6027,
      "Ġve": 6028,
      "cape": 6029,
      "Ġcompatible": 6030,
      "Ġpip": 6031,
      "rank": 6032,
      "future": 6033,
      "theta": 6034,
      "egr": 6035,
      "ummy": 6036,
      "lists": 6037,
      "resolve": 6038,
      "Ġsubmission": 6039,
      "versal": 6040,
      "Ġhistogram": 6041,
      "Ġderiv": 6042,
      "Qt": 6043,
      "ĠĠĠĠĠĠĠĠĠĠĠĠĠĠĠ": 6044,
      "vocation": 6045,
      "identity": 6046,
      "Ġ24": 6047,
      "Ass": 6048,
      "tl": 6049,
      "Ġhandlers": 6050,
      "ratio": 6051,
      "escape": 6052,
      "vered": 6053,
      "ĠInstance": 6054,
      "pending": 6055,
      "ĠServer": 6056,
      "bosity": 6057,
      "geometry": 6058,
      "CM": 6059,
      "Ġwatch": 6060,
      "collect": 6061,
      "ench": 6062,
      "ĠNotImplementedError": 6063,
      "Cre": 6064,
      "Ġspecifies": 6065,
      "Ġtemplates": 6066,
      "edit": 6067,
      "Ġmenu": 6068,
      "dian": 6069,
      "ĠDataset": 6070,
      "Ġlimits": 6071,
      "alculates": 6072,
      "Ġappear": 6073,
      "unknown": 6074,
      "Ġmis": 6075,
      "ĠGe": 6076,
      "USER": 6077,
      "allowed": 6078,
      "AY": 6079,
      "schedule": 6080,
      "redirect": 6081,
      "dependencies": 6082,
      "umbnail": 6083,
      "versed": 6084,
      "ĠSets": 6085,
      "Ġsections": 6086,
      "Ġregions": 6087,
      "roid": 6088,
      "Ġresolved": 6089,
      "ĠRequired": 6090,
      "ORT": 6091,
      "keywords": 6092,
      "omial": 6093,
      "aa": 6094,
      "urther": 6095,
      "28": 6096,
      "aggreg": 6097,
      "Ġtheta": 6098,
      "accept": 6099,
      "Pri": 6100,
      "Ġdecoded": 6101,
      "ĠGit": 6102,
      "redis": 6103,
      "Ġenough": 6104,
      ",))": 6105,
      "Ġpragma": 6106,
      "Ġsyntax": 6107,
      "Ġflat": 6108,
      "Ġmime": 6109,
      "ĠTry": 6110,
      "Ġbecome": 6111,
      "ĠService": 6112,
      "Ġlogic": 6113,
      "PIPE": 6114,
      "CF": 6115,
      "Dir": 6116,
      "Ġresponses": 6117,
      "Ġ\\'": 6118,
      "*.": 6119,
      "ĠSalt": 6120,
      "grams": 6121,
      "Ġstri": 6122,
      "tod": 6123,
      "using": 6124,
      "MAX": 6125,
      "Generates": 6126,
      "Det": 6127,
      "Ġteam": 6128,
      "Ġski": 6129,
      "Ġbetter": 6130,
      "terms": 6131,
      "ĠDjango": 6132,
      "notification": 6133,
      "argin": 6134,
      "Ġslug": 6135,
      "ĠCalculate": 6136,
      "iration": 6137,
      "Ġsentence": 6138,
      "ned": 6139,
      "rev": 6140,
      "('.')": 6141,
      "ftime": 6142,
      "ables": 6143,
      "imize": 6144,
      "Select": 6145,
      "ierarchy": 6146,
      "latest": 6147,
      "asa": 6148,
      "maked": 6149,
      "Ġlogical": 6150,
      "Ġentities": 6151,
      "wraps": 6152,
      "ĠEither": 6153,
      "Ġoutside": 6154,
      "/'": 6155,
      "Ġfinished": 6156,
      "Ġ11": 6157,
      "Removes": 6158,
      "Ġcalculation": 6159,
      "Ġsymbols": 6160,
      "'ll": 6161,
      "XT": 6162,
      "blems": 6163,
      "Ġarbitrary": 6164,
      "Ġrouting": 6165,
      "forward": 6166,
      "flatten": 6167,
      "Denied": 6168,
      "Ġear": 6169,
      "ĠNOT": 6170,
      "ĠNotFound": 6171,
      "Ġ])": 6172,
      "Ġinverse": 6173,
      "posure": 6174,
      "versions": 6175,
      "Ġ50": 6176,
      "Ġrecursively": 6177,
      "anit": 6178,
      "ĠCO": 6179,
      "ROM": 6180,
      "getattr": 6181,
      "Initialize": 6182,
      ")(": 6183,
      "Ġphi": 6184,
      "ĠSim": 6185,
      "26": 6186,
      "Ġvs": 6187,
      "ĠAuth": 6188,
      "ĠPrint": 6189,
      "iving": 6190,
      "ĠLe": 6191,
      "band": 6192,
      "Ġurllib": 6193,
      ">'": 6194,
      "ĠExec": 6195,
      "Ġannotations": 6196,
      "ĊĠĠĠĠĠĠĠĠĠĠĠĠĠĠĠĠĠĠĠĠĠĠĠĠĠĠĠĠĠĠĠĠĠĠĠĠĠĠĠĠĠĠĠĠĠ": 6197,
      "Ġmonitor": 6198,
      "Ġevaluate": 6199,
      "Ġexactly": 6200,
      "Ġke": 6201,
      "joint": 6202,
      "transport": 6203,
      "etermin": 6204,
      "sparse": 6205,
      "COL": 6206,
      "aws": 6207,
      "Ġpull": 6208,
      "ildcard": 6209,
      "Ġapplies": 6210,
      "Ġwave": 6211,
      "Ġconsumer": 6212,
      "Ġbuilder": 6213,
      "Ġobjective": 6214,
      "Page": 6215,
      "rd": 6216,
      "px": 6217,
      "helper": 6218,
      "Ġsimulation": 6219,
      "adratic": 6220,
      "ony": 6221,
      "Import": 6222,
      "27": 6223,
      "fc": 6224,
      "Ġinher": 6225,
      "xes": 6226,
      "Is": 6227,
      "Ġabort": 6228,
      "ĠĠĠĠĠĠĠĠĠĠĠĠĠ": 6229,
      "Ġasyncio": 6230,
      "Ġrepresented": 6231,
      "GI": 6232,
      "destination": 6233,
      "ĠCloud": 6234,
      "Document": 6235,
      "Ġdialog": 6236,
      "Ġ``(": 6237,
      "ĠDesc": 6238,
      "Ġeverything": 6239,
      "enable": 6240,
      "Ġparents": 6241,
      "ĠYAML": 6242,
      "Ġcategories": 6243,
      "VERSION": 6244,
      "Determine": 6245,
      "seg": 6246,
      "Ġeps": 6247,
      "udent": 6248,
      "catenate": 6249,
      "Ġ],": 6250,
      "(':": 6251,
      "('--": 6252,
      "Ġseg": 6253,
      "ĠNaN": 6254,
      "visible": 6255,
      "threads": 6256,
      "Num": 6257,
      "Ġ).": 6258,
      "attice": 6259,
      "splitext": 6260,
      "Python": 6261,
      "bet": 6262,
      "Ġrecomm": 6263,
      "()),": 6264,
      "phase": 6265,
      "ole": 6266,
      "Ġescape": 6267,
      "('{": 6268,
      "Ġwaiting": 6269,
      "except": 6270,
      "Ġcopied": 6271,
      "categories": 6272,
      "css": 6273,
      "Ġeval": 6274,
      "Ġconfigure": 6275,
      "CI": 6276,
      "OP": 6277,
      "Ġdet": 6278,
      "Ġcause": 6279,
      "Ġboundary": 6280,
      "Reads": 6281,
      "bg": 6282,
      "fft": 6283,
      "hidden": 6284,
      "lang": 6285,
      "ĠPlease": 6286,
      "Keys": 6287,
      "Ġcriteria": 6288,
      "ĠFe": 6289,
      "Ġmig": 6290,
      "Updates": 6291,
      "segments": 6292,
      "ongs": 6293,
      "Ġwrong": 6294,
      "Ġmiddle": 6295,
      "ffset": 6296,
      "push": 6297,
      "prev": 6298,
      "specific": 6299,
      "SM": 6300,
      "ĠTask": 6301,
      "Pass": 6302,
      "ĠMan": 6303,
      "ĠYields": 6304,
      "Ġreduce": 6305,
      "props": 6306,
      "uggest": 6307,
      "Show": 6308,
      "Ġfh": 6309,
      "Retrieves": 6310,
      "Range": 6311,
      "Ġimported": 6312,
      "[:]": 6313,
      ")',": 6314,
      "elem": 6315,
      "ĠOR": 6316,
      "Ġweek": 6317,
      "ONE": 6318,
      "calls": 6319,
      "FIX": 6320,
      "EST": 6321,
      "Mode": 6322,
      "agement": 6323,
      "scribe": 6324,
      "Transform": 6325,
      "lu": 6326,
      "Ġdaemon": 6327,
      "frequency": 6328,
      "inx": 6329,
      "Ġcomma": 6330,
      "Ġsubstit": 6331,
      "existing": 6332,
      "LECT": 6333,
      "poly": 6334,
      "Ġtrip": 6335,
      "hest": 6336,
      "Ġcurr": 6337,
      "ssibly": 6338,
      "vance": 6339,
      "named": 6340,
      "Be": 6341,
      "Max": 6342,
      "ĠSome": 6343,
      "complex": 6344,
      "LOGGER": 6345,
      "Ġcourse": 6346,
      "prob": 6347,
      "Execute": 6348,
      "imension": 6349,
      "ysical": 6350,
      "grad": 6351,
      "Schema": 6352,
      "asarray": 6353,
      "Ġattempts": 6354,
      "Ġsock": 6355,
      "ĠUnion": 6356,
      "Ġprediction": 6357,
      "OF": 6358,
      "ĠAWS": 6359,
      "stems": 6360,
      "imple": 6361,
      "Ġeditor": 6362,
      "ientation": 6363,
      "lour": 6364,
      "Ġlocale": 6365,
      "Ġloading": 6366,
      "Ġcoefficients": 6367,
      "Ġbrowser": 6368,
      "timedelta": 6369,
      "Ġoccurs": 6370,
      "Ġchoice": 6371,
      "HER": 6372,
      "Ġsk": 6373,
      "Ġcontact": 6374,
      "(\"/": 6375,
      "Ġlang": 6376,
      "ĠClass": 6377,
      "orch": 6378,
      "Ġcorresponds": 6379,
      "Ġvisual": 6380,
      "Tuple": 6381,
      "Ġam": 6382,
      "updated": 6383,
      "publish": 6384,
      "Ġhit": 6385,
      "FIEL": 6386,
      ".%": 6387,
      "Union": 6388,
      "]).": 6389,
      "Ġplan": 6390,
      "Ġlogged": 6391,
      "Ġinterest": 6392,
      "SIG": 6393,
      "atched": 6394,
      "alan": 6395,
      "Ġdecla": 6396,
      "video": 6397,
      "mot": 6398,
      "Ġgenes": 6399,
      "Ġpickle": 6400,
      "RR": 6401,
      "AND": 6402,
      "Results": 6403,
      "wt": 6404,
      "det": 6405,
      "Ġgeneral": 6406,
      "clip": 6407,
      "Ġpush": 6408,
      "Ġbackup": 6409,
      "coordinates": 6410,
      "Channel": 6411,
      "Ġsid": 6412,
      "Ġrv": 6413,
      "Ġtransformation": 6414,
      "Ġguess": 6415,
      "Ġencrypted": 6416,
      "Ġpredicate": 6417,
      "Ġrevision": 6418,
      "Ġperm": 6419,
      "Ġcomparison": 6420,
      "ffi": 6421,
      "try": 6422,
      "ĠTest": 6423,
      "ĠCSV": 6424,
      "aster": 6425,
      "Ġpoly": 6426,
      "ĠSend": 6427,
      "Ġcorrectly": 6428,
      "mc": 6429,
      "levels": 6430,
      "Ġsil": 6431,
      "rozen": 6432,
      "Ġchoices": 6433,
      "Ġhyper": 6434,
      "chars": 6435,
      "ĠWeb": 6436,
      "deploy": 6437,
      "riend": 6438,
      "Internal": 6439,
      "gorical": 6440,
      "Ġpie": 6441,
      "Ġestimate": 6442,
      "tol": 6443,
      "}]": 6444,
      "dec": 6445,
      "Ġ'{}'": 6446,
      "sheet": 6447,
      "Ġ=>": 6448,
      "relative": 6449,
      "some": 6450,
      "Ġminion": 6451,
      "Ġtests": 6452,
      "AX": 6453,
      "gamma": 6454,
      "Ġable": 6455,
      "Ġsyn": 6456,
      "marker": 6457,
      "Su": 6458,
      "^{": 6459,
      "Ġquote": 6460,
      "Ġdesign": 6461,
      "ĠSource": 6462,
      "Ġterminal": 6463,
      "splitlines": 6464,
      "40": 6465,
      "Ġranges": 6466,
      "ĠReferences": 6467,
      "88": 6468,
      "bad": 6469,
      "menu": 6470,
      "rices": 6471,
      "Ġtesting": 6472,
      "supports": 6473,
      ")\\": 6474,
      "Ġwhitespace": 6475,
      "ĠContent": 6476,
      "Fetch": 6477,
      "Ġsizes": 6478,
      "Ġev": 6479,
      "phinx": 6480,
      "Ġwhite": 6481,
      "Ġproperly": 6482,
      "Ġroles": 6483,
      "Ġlig": 6484,
      "Copy": 6485,
      "Ġtraject": 6486,
      "Ġanswer": 6487,
      "Cache": 6488,
      "sin": 6489,
      "strftime": 6490,
      "valuate": 6491,
      "ĠSequence": 6492,
      "Ġti": 6493,
      "Ġbias": 6494,
      "projects": 6495,
      "With": 6496,
      "asing": 6497,
      "ior": 6498,
      "Ġquestion": 6499,
      "packet": 6500,
      "ĠPermissionDenied": 6501,
      "duplic": 6502,
      "Ġinstrument": 6503,
      "TED": 6504,
      "gap": 6505,
      "crement": 6506,
      "Ġmyminion": 6507,
      "fire": 6508,
      "Ġsuitable": 6509,
      "Ġaffect": 6510,
      "Ġnewly": 6511,
      "AGS": 6512,
      "ĠBlock": 6513,
      "primary": 6514,
      "Ġconstants": 6515,
      "Wrapper": 6516,
      "Ġrouter": 6517,
      "aily": 6518,
      "Ġtransfer": 6519,
      "Ġdispatch": 6520,
      "Ġvisible": 6521,
      "Length": 6522,
      "Ġnumer": 6523,
      "ĠHttp": 6524,
      "Match": 6525,
      "logs": 6526,
      "ilon": 6527,
      "major": 6528,
      "ĠExtract": 6529,
      "Fail": 6530,
      "ising": 6531,
      "Ġprovides": 6532,
      "requencies": 6533,
      "dc": 6534,
      "inja": 6535,
      "pec": 6536,
      "Ġ##": 6537,
      "ranches": 6538,
      "Ġoccurred": 6539,
      "][\"": 6540,
      "ueprint": 6541,
      "iguous": 6542,
      "Ġdisabled": 6543,
      "ĠConnection": 6544,
      "Ġactor": 6545,
      "Ġmu": 6546,
      "Ġdigits": 6547,
      "okies": 6548,
      "lst": 6549,
      "orization": 6550,
      "agraph": 6551,
      "Header": 6552,
      "Container": 6553,
      "Ġhandles": 6554,
      "MAP": 6555,
      "enario": 6556,
      "Ġformatting": 6557,
      "cular": 6558,
      "Only": 6559,
      "Dist": 6560,
      "SQL": 6561,
      "vertices": 6562,
      "Ġmuch": 6563,
      "95": 6564,
      "Color": 6565,
      "Ġfallback": 6566,
      "Ġhome": 6567,
      "Ġcompression": 6568,
      "Ġpolygon": 6569,
      "aging": 6570,
      "many": 6571,
      "wave": 6572,
      "ucture": 6573,
      "Ġmanifest": 6574,
      "Ġhyd": 6575,
      "........": 6576,
      "Split": 6577,
      "ĠNormal": 6578,
      "Decode": 6579,
      "riptor": 6580,
      "Ġreplacement": 6581,
      "LINE": 6582,
      "ational": 6583,
      "Args": 6584,
      "amera": 6585,
      ",'": 6586,
      "ĠUTC": 6587,
      "etermines": 6588,
      "mid": 6589,
      "repository": 6590,
      "Ġloader": 6591,
      "luster": 6592,
      "ĠAR": 6593,
      "Ġnoqa": 6594,
      "ĊĠĠĠĠĠĠĠĠĠĠĠĠĠĠĠĠĠĠĠĠĠĠĠĠĠĠĠĠĠĠĠĠĠĠĠĠĠĠĠĠĠĠĠĠĠĠ": 6595,
      "inalg": 6596,
      "Label": 6597,
      "Module": 6598,
      "](": 6599,
      "Ġcomputation": 6600,
      "Ġvals": 6601,
      "ĠDelete": 6602,
      "Ġdisplayed": 6603,
      "oauth": 6604,
      "Ġnative": 6605,
      "ĠOption": 6606,
      "Ġtransformed": 6607,
      "CESS": 6608,
      "\"'": 6609,
      "Ġextended": 6610,
      "CTION": 6611,
      "vcf": 6612,
      "umed": 6613,
      "Ġselector": 6614,
      "Ġestimated": 6615,
      "Called": 6616,
      "eq": 6617,
      "Ġcred": 6618,
      "Ġcompatibility": 6619,
      "('{}": 6620,
      "Ġ*=": 6621,
      "Ġcoroutine": 6622,
      "Ġpositional": 6623,
      "olders": 6624,
      "Ġsv": 6625,
      "makedirs": 6626,
      "oted": 6627,
      "click": 6628,
      "illi": 6629,
      "ĠAdds": 6630,
      "CODE": 6631,
      "([\"": 6632,
      "Ġexchange": 6633,
      "perm": 6634,
      "CRE": 6635,
      "servers": 6636,
      "ee": 6637,
      "ante": 6638,
      "Ext": 6639,
      "Apply": 6640,
      "button": 6641,
      "Ġconflict": 6642,
      "Ġfasta": 6643,
      "Ġbinding": 6644,
      "isinstance": 6645,
      "Ġchosen": 6646,
      "Decorator": 6647,
      "Ġtail": 6648,
      "roles": 6649,
      "assert": 6650,
      "ipher": 6651,
      "Ġfragment": 6652,
      "ĠMay": 6653,
      "Ġpressure": 6654,
      "fw": 6655,
      "Ġbounding": 6656,
      "PUT": 6657,
      "NotFoundError": 6658,
      "GE": 6659,
      "hn": 6660,
      "Ġfurther": 6661,
      "Example": 6662,
      "bb": 6663,
      "tp": 6664,
      "Ġtoler": 6665,
      "HEAD": 6666,
      "Ġ---------": 6667,
      "Ġlisted": 6668,
      "double": 6669,
      "ledge": 6670,
      "ARNING": 6671,
      "Ġms": 6672,
      "ĠĠĠĠĠĠĠĠĠĠĠĠĠĠĠĠĠĠ": 6673,
      "Ġplane": 6674,
      "sequences": 6675,
      "anguages": 6676,
      "Ġrecipi": 6677,
      "Mark": 6678,
      "llo": 6679,
      "Ġcombined": 6680,
      "Min": 6681,
      "čĊĠĠĠĠĠĠĠĠĠĠĠĠĠĠĠĠĠĠĠ": 6682,
      "Ġurls": 6683,
      "Ġcycle": 6684,
      "RPC": 6685,
      "Ġ14": 6686,
      "Ge": 6687,
      "ĉĉ": 6688,
      "Property": 6689,
      "lacklist": 6690,
      "sequ": 6691,
      "Ġpred": 6692,
      "Ġappended": 6693,
      "flat": 6694,
      "ĠChecks": 6695,
      "WN": 6696,
      "iases": 6697,
      "Ġ64": 6698,
      "pipe": 6699,
      "Ġargparse": 6700,
      "Values": 6701,
      "extensions": 6702,
      "ĠSpecifies": 6703,
      "Ġgame": 6704,
      "Execution": 6705,
      "AME": 6706,
      "Ġserialize": 6707,
      "vlan": 6708,
      ")`": 6709,
      "nsupported": 6710,
      "written": 6711,
      "Ġtimedelta": 6712,
      "Ġformatter": 6713,
      "diffe": 6714,
      "[(": 6715,
      "tc": 6716,
      "sel": 6717,
      "ĠUses": 6718,
      "angles": 6719,
      "Ġopened": 6720,
      "74": 6721,
      "TA": 6722,
      "td": 6723,
      "acter": 6724,
      "solution": 6725,
      "scores": 6726,
      "Ġcar": 6727,
      "chrom": 6728,
      "figure": 6729,
      "Ġincoming": 6730,
      "watch": 6731,
      "--+": 6732,
      "ĠEnd": 6733,
      "br": 6734,
      "Ġvec": 6735,
      "sible": 6736,
      ")-": 6737,
      "Ġbank": 6738,
      "Ġports": 6739,
      "findall": 6740,
      "Ġequation": 6741,
      "Ġbroker": 6742,
      "Ġrendered": 6743,
      "measure": 6744,
      "vocab": 6745,
      "ventory": 6746,
      "pout": 6747,
      "ĠDO": 6748,
      "TypeError": 6749,
      "Ġrestrict": 6750,
      "simple": 6751,
      "DATE": 6752,
      "ĠDate": 6753,
      "ĠDist": 6754,
      "ĠND": 6755,
      "Ġ255": 6756,
      "pin": 6757,
      "Ġinterpolation": 6758,
      "New": 6759,
      "erial": 6760,
      "audio": 6761,
      "lette": 6762,
      "Ġdepends": 6763,
      "locations": 6764,
      "ĊĠĠ": 6765,
      "Ġsucce": 6766,
      "ides": 6767,
      "ĠTrace": 6768,
      "Ġcanonical": 6769,
      "Ġbuff": 6770,
      "Ġhandled": 6771,
      "Queue": 6772,
      "onent": 6773,
      "Ġhaving": 6774,
      "vidence": 6775,
      "Ġobserved": 6776,
      "yles": 6777,
      "Proxy": 6778,
      "ĠHowever": 6779,
      "Ġcatch": 6780,
      "chr": 6781,
      "Ġpg": 6782,
      "Ġvariance": 6783,
      "expect": 6784,
      "Location": 6785,
      "Ġdetected": 6786,
      "Ġ13": 6787,
      "licies": 6788,
      "dictionary": 6789,
      "tection": 6790,
      "ampa": 6791,
      "aker": 6792,
      "AF": 6793,
      "Host": 6794,
      "ordered": 6795,
      "Ġ25": 6796,
      "Ġaccepts": 6797,
      "ĠStream": 6798,
      "Ġbus": 6799,
      "AUT": 6800,
      "nx": 6801,
      "Ġdeclar": 6802,
      "ĠParameter": 6803,
      "Ġlarger": 6804,
      "Ġattachment": 6805,
      "Ġcandidates": 6806,
      "Ġalle": 6807,
      "Ġprops": 6808,
      "program": 6809,
      ":-": 6810,
      "basic": 6811,
      "Ġthings": 6812,
      "decimal": 6813,
      "Ġsla": 6814,
      "ĠLine": 6815,
      "ĠAllow": 6816,
      "ampaign": 6817,
      "else": 6818,
      "ĠPlot": 6819,
      "curacy": 6820,
      "ĠIPv": 6821,
      "padding": 6822,
      "bra": 6823,
      "aking": 6824,
      "Multi": 6825,
      "Ġssl": 6826,
      "aped": 6827,
      "RED": 6828,
      "ĠColumn": 6829,
      "qs": 6830,
      "ensure": 6831,
      "entities": 6832,
      "06": 6833,
      "ĊĠĠĠĠĠĠĠĠĠĠĠĠĠĠĠĠĠĠĠĠĠĠĠĠĠĠĠĠĠĠĠĠĠĠĠĠĠĠĠĠĠĠĠĠĠĠĠ": 6834,
      "Configuration": 6835,
      "SCII": 6836,
      "fficient": 6837,
      "Gra": 6838,
      "Ġatoms": 6839,
      "Ġ-----------": 6840,
      "ĠFormat": 6841,
      "div": 6842,
      "Ġcomplet": 6843,
      "Exit": 6844,
      "super": 6845,
      "Ġrc": 6846,
      "plain": 6847,
      "patterns": 6848,
      "Ġdescribed": 6849,
      "Ġhigher": 6850,
      "Ġndim": 6851,
      "otype": 6852,
      "distribution": 6853,
      "ĠCON": 6854,
      "}/{": 6855,
      "vided": 6856,
      "Ġgetting": 6857,
      "ibration": 6858,
      "Feature": 6859,
      "tuples": 6860,
      "Authentic": 6861,
      "79": 6862,
      "algorithm": 6863,
      "Rece": 6864,
      "uffle": 6865,
      "08": 6866,
      "UST": 6867,
      "descriptor": 6868,
      "Ġreached": 6869,
      "adjust": 6870,
      "ptime": 6871,
      "aper": 6872,
      "controller": 6873,
      "processor": 6874,
      "Ġ\"'": 6875,
      "fully": 6876,
      "ĠGets": 6877,
      "76": 6878,
      "Agent": 6879,
      "Try": 6880,
      "recv": 6881,
      "Ut": 6882,
      "Ġfront": 6883,
      "Ab": 6884,
      "sensitive": 6885,
      "standard": 6886,
      "Ġomitted": 6887,
      "']),": 6888,
      "Ġmoment": 6889,
      "plots": 6890,
      "ĠRetrieve": 6891,
      "dm": 6892,
      "Ġpan": 6893,
      "itch": 6894,
      "bus": 6895,
      "Ġsolver": 6896,
      "cks": 6897,
      "legal": 6898,
      "router": 6899,
      "enter": 6900,
      "ulative": 6901,
      "price": 6902,
      "Ġassignment": 6903,
      "Ġcompressed": 6904,
      "chunks": 6905,
      "You": 6906,
      "Ġcancel": 6907,
      "Ġ'#": 6908,
      "Ġmeas": 6909,
      "Ġsleep": 6910,
      "Ġidentified": 6911,
      ">\\": 6912,
      "Ġgeneric": 6913,
      "spa": 6914,
      "ĠCom": 6915,
      "Ġprobably": 6916,
      "dp": 6917,
      "repe": 6918,
      "Ġends": 6919,
      "Ġconfirm": 6920,
      "Ġmaking": 6921,
      "Ġsites": 6922,
      "Ġindexed": 6923,
      "regions": 6924,
      "isode": 6925,
      "Ġ'.'": 6926,
      "Cloud": 6927,
      "Admin": 6928,
      "CA": 6929,
      "atives": 6930,
      "Pool": 6931,
      "wiki": 6932,
      "ij": 6933,
      "Ġfiltering": 6934,
      "Ġordering": 6935,
      "Change": 6936,
      "dep": 6937,
      "Ġdep": 6938,
      "lineno": 6939,
      "OUT": 6940,
      "Ġgenome": 6941,
      "Ġrelationship": 6942,
      "Out": 6943,
      "Operation": 6944,
      "Target": 6945,
      "game": 6946,
      "rgb": 6947,
      "energy": 6948,
      "Ġincrement": 6949,
      "Ġsmaller": 6950,
      "Ġevaluation": 6951,
      "GP": 6952,
      "linalg": 6953,
      "reci": 6954,
      "Ġconvent": 6955,
      "Ġdefines": 6956,
      "Ġchat": 6957,
      "lify": 6958,
      "Ġneg": 6959,
      "Ġiterate": 6960,
      "wall": 6961,
      "deepcopy": 6962,
      "digit": 6963,
      "Mem": 6964,
      "ĠSpecify": 6965,
      "sertionError": 6966,
      "Ġseveral": 6967,
      "Port": 6968,
      "pars": 6969,
      "contract": 6970,
      "Ġintersection": 6971,
      "speed": 6972,
      "Ġexpressions": 6973,
      "Ġbelong": 6974,
      "plus": 6975,
      "Ġreadable": 6976,
      "Ġgrade": 6977,
      "IF": 6978,
      "_%": 6979,
      "ital": 6980,
      "Ġsing": 6981,
      "Ġstypes": 6982,
      "Ġetree": 6983,
      "iles": 6984,
      "ĠAddress": 6985,
      "Formatter": 6986,
      "Ġleading": 6987,
      "tage": 6988,
      "Ġroll": 6989,
      "disable": 6990,
      "Ġok": 6991,
      "Ġstride": 6992,
      "Order": 6993,
      ",),": 6994,
      "SR": 6995,
      "ĠSign": 6996,
      "STAT": 6997,
      "Meta": 6998,
      "Ġthing": 6999,
      "ipv": 7000,
      "cycle": 7001,
      "ims": 7002,
      "Reader": 7003,
      "six": 7004,
      "inations": 7005,
      "sk": 7006,
      "VM": 7007,
      "lar": 7008,
      "getter": 7009,
      "Ġlengths": 7010,
      "ini": 7011,
      "ĠRPC": 7012,
      "raft": 7013,
      "ĠEnsure": 7014,
      "Ali": 7015,
      "Ġclone": 7016,
      "Ġspin": 7017,
      "Ġinserted": 7018,
      "bolic": 7019,
      "Ġclassification": 7020,
      "voice": 7021,
      "bottom": 7022,
      "Ġtimer": 7023,
      "ĠSE": 7024,
      "tected": 7025,
      "Does": 7026,
      "21": 7027,
      "Ġtrying": 7028,
      "country": 7029,
      "ATCH": 7030,
      "sence": 7031,
      "cel": 7032,
      ">`_": 7033,
      "Ġobtained": 7034,
      "adapter": 7035,
      "DR": 7036,
      "Ġdd": 7037,
      "Ġwon": 7038,
      "osite": 7039,
      "va": 7040,
      "Ġ'/'": 7041,
      "cred": 7042,
      "Ġten": 7043,
      "Ġ'':": 7044,
      "subnet": 7045,
      "Pub": 7046,
      "inc": 7047,
      "sender": 7048,
      "Ġexpon": 7049,
      "ĠThen": 7050,
      "ĠInteger": 7051,
      "objective": 7052,
      "Ġshard": 7053,
      "31": 7054,
      "Ids": 7055,
      "chat": 7056,
      "Ġusually": 7057,
      "dispatch": 7058,
      "Ġvars": 7059,
      "LS": 7060,
      "udo": 7061,
      "setting": 7062,
      "ĠInitial": 7063,
      "Ġsignals": 7064,
      "ollow": 7065,
      "ART": 7066,
      "Ġroutine": 7067,
      "bre": 7068,
      "Ġest": 7069,
      "ĠSH": 7070,
      "artesian": 7071,
      "Ġencoder": 7072,
      "Ġrev": 7073,
      "ingerprint": 7074,
      "wcs": 7075,
      "Ġactivity": 7076,
      "Lookup": 7077,
      "Ġmagic": 7078,
      "Ġtxt": 7079,
      "arante": 7080,
      "intervals": 7081,
      "Ġreach": 7082,
      "Any": 7083,
      "priority": 7084,
      "Ġwalk": 7085,
      "ĠVer": 7086,
      "nested": 7087,
      "Ġoverla": 7088,
      "sembly": 7089,
      "Ġcrypt": 7090,
      "Ġmid": 7091,
      "ĠToken": 7092,
      "bias": 7093,
      "effect": 7094,
      "uer": 7095,
      "strict": 7096,
      "Ġbra": 7097,
      "Ġ*,": 7098,
      "Ġupon": 7099,
      "Ġcallbacks": 7100,
      "etc": 7101,
      "Ġdynamic": 7102,
      "coding": 7103,
      "JE": 7104,
      "zure": 7105,
      "ĠTag": 7106,
      "]}": 7107,
      "Ġtax": 7108,
      "Ġfire": 7109,
      "abilities": 7110,
      "contin": 7111,
      "Ġcwd": 7112,
      "cookie": 7113,
      "Ġmajor": 7114,
      "screen": 7115,
      "connections": 7116,
      "Ġmeasurement": 7117,
      "CB": 7118,
      "NOT": 7119,
      "Ġstrategy": 7120,
      "Ġroom": 7121,
      "ULL": 7122,
      "Ġissues": 7123,
      "cod": 7124,
      "mpy": 7125,
      "maps": 7126,
      "erce": 7127,
      "Ġnearest": 7128,
      "Ġcorrespond": 7129,
      "SCRI": 7130,
      "Ġfw": 7131,
      "Wait": 7132,
      "`).": 7133,
      "gov": 7134,
      "MODE": 7135,
      "sizes": 7136,
      "Ġbbox": 7137,
      "processed": 7138,
      "Ġcorrelation": 7139,
      "matplotlib": 7140,
      "ĠDoes": 7141,
      "Options": 7142,
      "cov": 7143,
      "external": 7144,
      "listdir": 7145,
      "views": 7146,
      "Ġscaling": 7147,
      "Ġhalf": 7148,
      "comments": 7149,
      ":`~.": 7150,
      "etches": 7151,
      "Ġstation": 7152,
      "Ġproduce": 7153,
      "Ġdirs": 7154,
      "ints": 7155,
      "Temp": 7156,
      "Ġsatis": 7157,
      "(\"-": 7158,
      "ĠInitialize": 7159,
      "Ġchars": 7160,
      "iterator": 7161,
      "Ġsubmit": 7162,
      "ticks": 7163,
      "outer": 7164,
      "Ġreferenced": 7165,
      "/.": 7166,
      "Missing": 7167,
      "seudo": 7168,
      "Ġir": 7169,
      "Ġsear": 7170,
      "Ġproblems": 7171,
      "Ġlooking": 7172,
      "exe": 7173,
      "Ġformula": 7174,
      "Ġmacro": 7175,
      "ĠMap": 7176,
      "Ġadapter": 7177,
      "Ġlistener": 7178,
      "ĠIterable": 7179,
      "ike": 7180,
      "peer": 7181,
      "corr": 7182,
      "Ġweighted": 7183,
      "ĠURLs": 7184,
      "Ġgoing": 7185,
      "scalar": 7186,
      "tep": 7187,
      "Ġrho": 7188,
      "cognized": 7189,
      "*(": 7190,
      "XML": 7191,
      "templates": 7192,
      "Ġtolerance": 7193,
      "incip": 7194,
      "Ġcp": 7195,
      "Ġnu": 7196,
      "FORMAT": 7197,
      "Ġtrial": 7198,
      "Ġlooks": 7199,
      "Ġocc": 7200,
      "Ġcum": 7201,
      "Ġservers": 7202,
      "phrase": 7203,
      "executable": 7204,
      "Ġbug": 7205,
      "CDF": 7206,
      "locate": 7207,
      "Ġcoord": 7208,
      "artifact": 7209,
      "places": 7210,
      "Callback": 7211,
      ")],": 7212,
      "resid": 7213,
      "ĠDon": 7214,
      "Ġcalc": 7215,
      "Go": 7216,
      "PT": 7217,
      "ĠPart": 7218,
      "ĠMy": 7219,
      "Normal": 7220,
      "ĠIs": 7221,
      "85": 7222,
      "xi": 7223,
      "Ġpys": 7224,
      "ĠCode": 7225,
      "Ġ{}).": 7226,
      "selector": 7227,
      "aff": 7228,
      "ilename": 7229,
      "Ġspecies": 7230,
      "Ġclusters": 7231,
      "Ġvarious": 7232,
      "Bad": 7233,
      "thresh": 7234,
      "verter": 7235,
      "fixed": 7236,
      "conditions": 7237,
      "+'": 7238,
      "Ġtwe": 7239,
      "urnal": 7240,
      "Ġretries": 7241,
      "mitive": 7242,
      "ĠSave": 7243,
      "ĠDec": 7244,
      "intersection": 7245,
      "Names": 7246,
      "multiple": 7247,
      "ĠAssertionError": 7248,
      "-~": 7249,
      "alect": 7250,
      "deleted": 7251,
      "Ġcm": 7252,
      "rad": 7253,
      "Ġestimator": 7254,
      "Ter": 7255,
      "Ġasc": 7256,
      "Ġembedding": 7257,
      "cancel": 7258,
      "switch": 7259,
      "getLogger": 7260,
      "riendly": 7261,
      "bf": 7262,
      "lid": 7263,
      "Ġgives": 7264,
      "ups": 7265,
      "ĠSSL": 7266,
      "{})": 7267,
      "Ġneighbors": 7268,
      "Ġspectrum": 7269,
      "zz": 7270,
      "learn": 7271,
      "unded": 7272,
      "Ġtrailing": 7273,
      "Control": 7274,
      "Ġmodification": 7275,
      "45": 7276,
      "Ġsquare": 7277,
      "Ġglyph": 7278,
      "Initial": 7279,
      "ĠPol": 7280,
      "================================": 7281,
      "virtual": 7282,
      "syn": 7283,
      "Ġnotes": 7284,
      "ĠRO": 7285,
      "Ġalert": 7286,
      "Ġprovid": 7287,
      "(\"{": 7288,
      "scrib": 7289,
      "Ġproduced": 7290,
      "Ġgamma": 7291,
      "currency": 7292,
      "Mapping": 7293,
      "war": 7294,
      "Ġdeviation": 7295,
      "validation": 7296,
      "ĠLength": 7297,
      "Ġtrim": 7298,
      "pn": 7299,
      "']):": 7300,
      "READ": 7301,
      "Ġalternative": 7302,
      "Ġ\")": 7303,
      "annotation": 7304,
      "Ġ\"<": 7305,
      "Ġdetail": 7306,
      "locity": 7307,
      "Ġasynchronous": 7308,
      "Ensure": 7309,
      "formatted": 7310,
      "ĠVariable": 7311,
      "cells": 7312,
      "peak": 7313,
      "izable": 7314,
      "Ġassessment": 7315,
      "inds": 7316,
      "parents": 7317,
      "absolute": 7318,
      "Ġidentifiers": 7319,
      "kes": 7320,
      "enc": 7321,
      "Ġpillar": 7322,
      "Ġhorizontal": 7323,
      "Back": 7324,
      "Hash": 7325,
      "bundle": 7326,
      "cles": 7327,
      "Ġworkers": 7328,
      "Ġplain": 7329,
      "permissions": 7330,
      "Ġdry": 7331,
      "Char": 7332,
      "untered": 7333,
      "Ġconst": 7334,
      "Ġcompress": 7335,
      "ĠWith": 7336,
      "licable": 7337,
      "scripts": 7338,
      "servation": 7339,
      "eg": 7340,
      "ĠAct": 7341,
      "ĠSN": 7342,
      "Ġremoving": 7343,
      "!\")": 7344,
      "(('": 7345,
      "unset": 7346,
      "Comm": 7347,
      "visit": 7348,
      "Ġmagnitude": 7349,
      "Ġol": 7350,
      "ĠPandas": 7351,
      "moved": 7352,
      "Ġcompile": 7353,
      "composition": 7354,
      "Ġexpanded": 7355,
      "Ġpossibly": 7356,
      "ranges": 7357,
      "ĠHel": 7358,
      "Ġrespectively": 7359,
      "delimit": 7360,
      "ĠDEFAULT": 7361,
      "chanism": 7362,
      "Ġguarante": 7363,
      "Ġassumes": 7364,
      "Core": 7365,
      "lica": 7366,
      "Ġdec": 7367,
      "locals": 7368,
      "\">": 7369,
      "mis": 7370,
      "Ġexcluded": 7371,
      "poses": 7372,
      "Ġregard": 7373,
      "submit": 7374,
      "Ġperformance": 7375,
      "Ġreaction": 7376,
      "datasets": 7377,
      "Ġduplicates": 7378,
      "Ġbelongs": 7379,
      "Ġhours": 7380,
      "OB": 7381,
      "browser": 7382,
      "recurs": 7383,
      "ĠSystem": 7384,
      "arrays": 7385,
      "HERE": 7386,
      "Ġdoing": 7387,
      "minimum": 7388,
      "\"][": 7389,
      "ttributes": 7390,
      "MIN": 7391,
      "Ġplayer": 7392,
      "Ġnx": 7393,
      "validator": 7394,
      "built": 7395,
      "Ġpartitions": 7396,
      "ĠContext": 7397,
      "ĠRaise": 7398,
      "noise": 7399,
      "ĠEnvironment": 7400,
      "alive": 7401,
      "may": 7402,
      "Types": 7403,
      "Ġtun": 7404,
      "experiment": 7405,
      "previous": 7406,
      "velength": 7407,
      "statement": 7408,
      "Ġfollows": 7409,
      "nc": 7410,
      "agger": 7411,
      "Ġunion": 7412,
      "mix": 7413,
      "LED": 7414,
      "Ġgap": 7415,
      "ĠPh": 7416,
      "ĠVersion": 7417,
      "Display": 7418,
      "failure": 7419,
      "Ġobservation": 7420,
      "stage": 7421,
      "Ġdeli": 7422,
      "ubclass": 7423,
      "FIELD": 7424,
      "Ġmappings": 7425,
      "Ġfilled": 7426,
      "Ġstdin": 7427,
      "thers": 7428,
      "Ġmatrices": 7429,
      "dfs": 7430,
      "annotations": 7431,
      "ĠCurrently": 7432,
      "ultiple": 7433,
      "imit": 7434,
      "shared": 7435,
      "LD": 7436,
      "tic": 7437,
      "Ġwallet": 7438,
      "(\".": 7439,
      "Ġreally": 7440,
      "gu": 7441,
      "Ġ'[": 7442,
      "Ġhierarchy": 7443,
      "Uni": 7444,
      "Ġpoll": 7445,
      "Ġprotobuf": 7446,
      "stand": 7447,
      "Ġcovariance": 7448,
      "outfile": 7449,
      "boto": 7450,
      "Ġchoose": 7451,
      "Template": 7452,
      "cnt": 7453,
      "nr": 7454,
      "atoms": 7455,
      "Ġtools": 7456,
      "Ġchart": 7457,
      "ĠConstruct": 7458,
      "Ġpredicted": 7459,
      "ii": 7460,
      ">>>": 7461,
      "ĠPost": 7462,
      "Ġrgb": 7463,
      "formatter": 7464,
      "Ġcompound": 7465,
      "Ġaddition": 7466,
      "ĠConfiguration": 7467,
      "constraints": 7468,
      "union": 7469,
      "oth": 7470,
      "curve": 7471,
      "mediator": 7472,
      "ĠSchema": 7473,
      "Ġclip": 7474,
      "URE": 7475,
      "Ġcipher": 7476,
      "addresses": 7477,
      "osome": 7478,
      "ERS": 7479,
      "Ġmanually": 7480,
      "duce": 7481,
      "Url": 7482,
      "Ġassum": 7483,
      "specs": 7484,
      "Ġreload": 7485,
      "ĠTarget": 7486,
      "white": 7487,
      "Ġtries": 7488,
      "Ġprocessor": 7489,
      "Ġinvoked": 7490,
      "Ġgeneration": 7491,
      "Generator": 7492,
      "gies": 7493,
      "sol": 7494,
      "Ġ(-": 7495,
      "ĠPack": 7496,
      "Ġmasked": 7497,
      "Ġidentical": 7498,
      "Draw": 7499,
      "NN": 7500,
      "nu": 7501,
      "Ġss": 7502,
      "Ġsen": 7503,
      "Ġworkspace": 7504,
      "}`": 7505,
      "dicts": 7506,
      "Bytes": 7507,
      "-~-~": 7508,
      "appro": 7509,
      "Ġdatastore": 7510,
      "maximum": 7511,
      "ARY": 7512,
      "JECT": 7513,
      "micro": 7514,
      "ĠValues": 7515,
      "ynomial": 7516,
      "Child": 7517,
      "âĢ": 7518,
      "abc": 7519,
      "ittle": 7520,
      "Ġborder": 7521,
      "ught": 7522,
      "CC": 7523,
      "Writes": 7524,
      "ĠIgn": 7525,
      "console": 7526,
      "statements": 7527,
      "fastq": 7528,
      "URI": 7529,
      "arily": 7530,
      "Ġyields": 7531,
      "\"}": 7532,
      "cross": 7533,
      "Ġaliases": 7534,
      "Ġcc": 7535,
      "Ġlst": 7536,
      "Ġscene": 7537,
      "Ġstand": 7538,
      "pointer": 7539,
      "Net": 7540,
      "hips": 7541,
      "Ġquality": 7542,
      "Ġquiet": 7543,
      "rho": 7544,
      "Ġred": 7545,
      "Ġsampler": 7546,
      "STATE": 7547,
      "ornado": 7548,
      "stone": 7549,
      "()}": 7550,
      "odb": 7551,
      "Ġmaint": 7552,
      "Ġserializer": 7553,
      "Ġoverrides": 7554,
      "Ġecho": 7555,
      "clusters": 7556,
      "tau": 7557,
      "Ġextent": 7558,
      "pip": 7559,
      "Ġplots": 7560,
      "ĠLocation": 7561,
      ");": 7562,
      "Ġprotein": 7563,
      "TEXT": 7564,
      "Ġconverts": 7565,
      "Func": 7566,
      "Ġwildcard": 7567,
      "Ġcos": 7568,
      "Ġdeep": 7569,
      "ĠSince": 7570,
      ":`\\": 7571,
      "positions": 7572,
      "located": 7573,
      "Ġconfidence": 7574,
      "Ġreduced": 7575,
      "Ġage": 7576,
      "ormap": 7577,
      "ĠCallable": 7578,
      "manifest": 7579,
      "installed": 7580,
      "Stop": 7581,
      "ĠApi": 7582,
      "Ġcombination": 7583,
      "89": 7584,
      "intext": 7585,
      "ĊĠĠĠĠĠĠĠĠĠĠĠĠĠĠĠĠĠĠĠĠĠĠĠĠĠĠĠĠĠĠĠĠĠĠĠĠĠĠĠĠĠĠĠĠĠĠĠĠĠ": 7586,
      ".],": 7587,
      "RS": 7588,
      "Ġscheduler": 7589,
      "Ġthresh": 7590,
      "izations": 7591,
      "pay": 7592,
      "Ġoffsets": 7593,
      "Ġlinked": 7594,
      "Ġphone": 7595,
      "CAL": 7596,
      "since": 7597,
      "Ġbalance": 7598,
      "ĊĠĠĠĠĠĠĠĠĠĠĠĠĠĠĠĠĠĠĠĠĠĠĠĠĠĠĠĠĠĠĠĠĠĠĠĠĠĠĠĠĠĠĠĠĠĠĠĠĠĠĠ": 7599,
      "Ġbytearray": 7600,
      "Ne": 7601,
      "ped": 7602,
      "notify": 7603,
      "equ": 7604,
      "Profile": 7605,
      "uniform": 7606,
      "ĠTraceback": 7607,
      "ios": 7608,
      "Ġpin": 7609,
      "ĠCPU": 7610,
      "Ġouter": 7611,
      "Ġinterfaces": 7612,
      "Rule": 7613,
      "ĠNow": 7614,
      "Ġfold": 7615,
      "Ġpopulation": 7616,
      "dro": 7617,
      "timer": 7618,
      "initions": 7619,
      "Ġtranscript": 7620,
      "flu": 7621,
      "dimensions": 7622,
      "Flow": 7623,
      "mime": 7624,
      "sli": 7625,
      "Ġinject": 7626,
      "constant": 7627,
      "(\"--": 7628,
      "Ġcompiled": 7629,
      "Application": 7630,
      "Ġpredictions": 7631,
      "Ġ:]": 7632,
      "cha": 7633,
      "warnings": 7634,
      "Ġevaluated": 7635,
      "bum": 7636,
      "balance": 7637,
      "cost": 7638,
      "Ġadjac": 7639,
      "Ġbroadcast": 7640,
      "illiseconds": 7641,
      "ĠSort": 7642,
      "iming": 7643,
      "Ġnormalization": 7644,
      "Ġinstanti": 7645,
      ").__": 7646,
      "lt": 7647,
      "hem": 7648,
      "Ġicon": 7649,
      "Insert": 7650,
      "stdin": 7651,
      "compatible": 7652,
      "Grid": 7653,
      "jid": 7654,
      "chemas": 7655,
      "more": 7656,
      "visor": 7657,
      "Ġcutoff": 7658,
      "Ġxy": 7659,
      "Ġgrad": 7660,
      "Ġpercentage": 7661,
      "effs": 7662,
      "coded": 7663,
      "olding": 7664,
      "('[": 7665,
      "Retry": 7666,
      "Ġhighest": 7667,
      "django": 7668,
      "anging": 7669,
      "Cons": 7670,
      "Ġcare": 7671,
      "issue": 7672,
      "Ġmarked": 7673,
      "llegal": 7674,
      "ĠFROM": 7675,
      "hile": 7676,
      "Sum": 7677,
      "usion": 7678,
      "REG": 7679,
      "Factory": 7680,
      "dom": 7681,
      "isk": 7682,
      "Install": 7683,
      "canvas": 7684,
      "SN": 7685,
      "pur": 7686,
      "gered": 7687,
      "TEST": 7688,
      "structions": 7689,
      "!')": 7690,
      "ĠDetermine": 7691,
      "ograph": 7692,
      "west": 7693,
      "DP": 7694,
      "LOW": 7695,
      "Ġvox": 7696,
      "Jo": 7697,
      "Ġfew": 7698,
      "concat": 7699,
      "Ġregistration": 7700,
      "\"{": 7701,
      "icon": 7702,
      "land": 7703,
      "rdf": 7704,
      "Ġbatches": 7705,
      "REQU": 7706,
      "calculate": 7707,
      "candidate": 7708,
      "fh": 7709,
      "rp": 7710,
      "subset": 7711,
      "callbacks": 7712,
      "serializer": 7713,
      "Matrix": 7714,
      "inct": 7715,
      "izers": 7716,
      "Ġcalendar": 7717,
      "Ġzoom": 7718,
      "ĠReference": 7719,
      "59": 7720,
      "fpath": 7721,
      "activity": 7722,
      "Ġauthenticated": 7723,
      "Ġlight": 7724,
      "hard": 7725,
      "ĠUUID": 7726,
      "Ġsoft": 7727,
      "ĠJob": 7728,
      "Ġrendering": 7729,
      "ĠĠĠĠĠĠĠĠĠĠĠĠĠĠĠĠĠĠĠ": 7730,
      "cluding": 7731,
      "Ġmeaning": 7732,
      "TYPES": 7733,
      "ĠAzure": 7734,
      "Ġens": 7735,
      "ĠDevice": 7736,
      "separated": 7737,
      "Ġmail": 7738,
      "Ġ|=": 7739,
      "compressed": 7740,
      "ĠConverts": 7741,
      "when": 7742,
      "Ġops": 7743,
      "examples": 7744,
      "('<": 7745,
      "formats": 7746,
      "retries": 7747,
      "Ġtempfile": 7748,
      "Exp": 7749,
      "Ġcapture": 7750,
      "poll": 7751,
      "training": 7752,
      "\"%": 7753,
      "EC": 7754,
      "acl": 7755,
      "Ġrecur": 7756,
      "locale": 7757,
      "Ġmicro": 7758,
      "vertex": 7759,
      "Ġplotting": 7760,
      "Ġpreferred": 7761,
      "Ġclients": 7762,
      "ĠPri": 7763,
      "Ġnewline": 7764,
      "numbers": 7765,
      "LOCK": 7766,
      "average": 7767,
      "Ġints": 7768,
      "Cursor": 7769,
      "Ġreversed": 7770,
      "Ġissubclass": 7771,
      "Iteration": 7772,
      "Ġdetermines": 7773,
      "Ġ({": 7774,
      "errno": 7775,
      "parsers": 7776,
      "VICE": 7777,
      "cv": 7778,
      "zed": 7779,
      "lips": 7780,
      "unity": 7781,
      "Ġqs": 7782,
      "Ġtreated": 7783,
      "impl": 7784,
      "sites": 7785,
      "star": 7786,
      "Ġothers": 7787,
      "001": 7788,
      "neg": 7789,
      "serialized": 7790,
      "RC": 7791,
      "Ġjs": 7792,
      "aming": 7793,
      "Ġspatial": 7794,
      "Ġclosest": 7795,
      "finite": 7796,
      "=''": 7797,
      "gl": 7798,
      "analy": 7799,
      "Ġance": 7800,
      "limits": 7801,
      "Ġfar": 7802,
      "Ġzeros": 7803,
      "Ġpropag": 7804,
      "Ġtol": 7805,
      "Ġwindows": 7806,
      "Ġhydpy": 7807,
      "ĠPub": 7808,
      "Ġintended": 7809,
      "ĠArgument": 7810,
      "subscription": 7811,
      "Lib": 7812,
      "rename": 7813,
      "reads": 7814,
      "precision": 7815,
      "two": 7816,
      "Ġinstruction": 7817,
      "ĠPage": 7818,
      "dataframe": 7819,
      "__))": 7820,
      "Ġuniform": 7821,
      "MQ": 7822,
      "Merge": 7823,
      "Vis": 7824,
      "Oper": 7825,
      "same": 7826,
      "rich": 7827,
      "background": 7828,
      "green": 7829,
      "2000": 7830,
      "Ġpt": 7831,
      "Ġlic": 7832,
      "404": 7833,
      "Ġbg": 7834,
      "\",\"": 7835,
      "Ġprinted": 7836,
      "Ġargv": 7837,
      "ĠTakes": 7838,
      "Ġmaybe": 7839,
      "xs": 7840,
      "ysql": 7841,
      "issues": 7842,
      "workers": 7843,
      "Ġlikely": 7844,
      "Loads": 7845,
      "xc": 7846,
      "ĠRGB": 7847,
      "Ġ18": 7848,
      "Ġremoves": 7849,
      "Ġ\"\",": 7850,
      "Ġlineno": 7851,
      "ĠFIX": 7852,
      "AV": 7853,
      "Clear": 7854,
      "must": 7855,
      "Ġbed": 7856,
      "')):": 7857,
      "(\"{}": 7858,
      "collections": 7859,
      "65": 7860,
      "vor": 7861,
      "Ġcores": 7862,
      "mmar": 7863,
      "Param": 7864,
      "Ġinitialization": 7865,
      "Ġ2016": 7866,
      "alancer": 7867,
      "Ġdeclared": 7868,
      "Ġworld": 7869,
      "readline": 7870,
      "Required": 7871,
      "Ġdistances": 7872,
      "Ġangles": 7873,
      "Option": 7874,
      "href": 7875,
      "lags": 7876,
      "gsize": 7877,
      "Ġxrange": 7878,
      "ĠOptions": 7879,
      "ĠDirectory": 7880,
      "Builder": 7881,
      "Please": 7882,
      "_'": 7883,
      "Ġplease": 7884,
      "Ġthro": 7885,
      "inator": 7886,
      "Ġhref": 7887,
      "Ġbasename": 7888,
      "ĠOptionally": 7889,
      "ĠTemplate": 7890,
      "fr": 7891,
      "hparams": 7892,
      "java": 7893,
      "Ġfg": 7894,
      "Ġinline": 7895,
      "course": 7896,
      "tax": 7897,
      "COM": 7898,
      "Interface": 7899,
      "lasticsearch": 7900,
      "Ġtenant": 7901,
      "Ġbulk": 7902,
      "Timestamp": 7903,
      "Render": 7904,
      "lobs": 7905,
      "negative": 7906,
      "Ġlearning": 7907,
      "ĠGO": 7908,
      "Ġlargest": 7909,
      "bbox": 7910,
      "Ġassets": 7911,
      "Ġqubits": 7912,
      "Ġapplicable": 7913,
      "INTER": 7914,
      "('/')": 7915,
      "Ġboard": 7916,
      "astropy": 7917,
      "Ġcmap": 7918,
      "ĠLabel": 7919,
      "Ġencountered": 7920,
      "SELECT": 7921,
      "Ġfollowed": 7922,
      "pdb": 7923,
      "xis": 7924,
      "Ġtell": 7925,
      "byref": 7926,
      "Ġgenerates": 7927,
      "multip": 7928,
      "nipp": 7929,
      "Ġobservations": 7930,
      "trigger": 7931,
      "Ġklass": 7932,
      "Ġshown": 7933,
      "CHE": 7934,
      "Ġcleanup": 7935,
      "MT": 7936,
      "igure": 7937,
      "Ġfloating": 7938,
      "Ġvalidated": 7939,
      "Ġdefining": 7940,
      "Ġ\"\")": 7941,
      "latitude": 7942,
      "VALUE": 7943,
      "Popen": 7944,
      "imizer": 7945,
      "Failure": 7946,
      "did": 7947,
      "ĠCor": 7948,
      "numeric": 7949,
      "cally": 7950,
      "runner": 7951,
      "toolkit": 7952,
      "PM": 7953,
      "utures": 7954,
      "ĠAb": 7955,
      "ĠAnd": 7956,
      "Ġ``\"": 7957,
      "Ġneur": 7958,
      "Ġconsistent": 7959,
      "Ġrecommended": 7960,
      "Ġcr": 7961,
      "aliases": 7962,
      "ĠDocument": 7963,
      "Ġgrouped": 7964,
      "Directory": 7965,
      "ĠRecord": 7966,
      "imuth": 7967,
      "configure": 7968,
      "********": 7969,
      "Ġeigen": 7970,
      "RF": 7971,
      "cator": 7972,
      "Ġfour": 7973,
      "deps": 7974,
      "degree": 7975,
      "Ġlocated": 7976,
      "Ġminor": 7977,
      "Ġexpired": 7978,
      "SKIP": 7979,
      "yy": 7980,
      "ĠAST": 7981,
      "Ġstreams": 7982,
      "ributed": 7983,
      "requirements": 7984,
      "ners": 7985,
      "Ġsubsequ": 7986,
      "Descriptor": 7987,
      "Ġcoefficient": 7988,
      "GO": 7989,
      "Ġaux": 7990,
      "dients": 7991,
      "Ġosid": 7992,
      "Ġrefer": 7993,
      "contains": 7994,
      "Ġconfigs": 7995,
      "Ġconvention": 7996,
      "Ġdeal": 7997,
      "Ġleaf": 7998,
      "ansion": 7999,
      "ĠUnique": 8000,
      "VALID": 8001,
      "ĠAssume": 8002,
      "traceback": 8003,
      "Ġindependent": 8004,
      "Ġ[{'": 8005,
      "'})": 8006,
      "GR": 8007,
      "alchemy": 8008,
      "Ġrestore": 8009,
      "ĠStore": 8010,
      "Ġcheckpoint": 8011,
      "Ġdebugging": 8012,
      "Ed": 8013,
      "Ġide": 8014,
      "Ġraster": 8015,
      "hier": 8016,
      "Ġdefaultdict": 8017,
      "Ġcustomer": 8018,
      "'ve": 8019,
      "38": 8020,
      "Ġgenerating": 8021,
      "choices": 8022,
      "Ġarticle": 8023,
      "SY": 8024,
      "pull": 8025,
      "zoom": 8026,
      "etched": 8027,
      "509": 8028,
      "ium": 8029,
      "wrapped": 8030,
      "Ġer": 8031,
      "stor": 8032,
      "['_": 8033,
      "ĠCustom": 8034,
      "geom": 8035,
      "Quantity": 8036,
      "cutoff": 8037,
      "ĠGoogle": 8038,
      "/{}": 8039,
      "Ġvlan": 8040,
      "ĠSession": 8041,
      "Description": 8042,
      "->": 8043,
      "UI": 8044,
      "USE": 8045,
      "mol": 8046,
      "Ġanchor": 8047,
      "()).": 8048,
      "ĠSSH": 8049,
      "reddit": 8050,
      "Ġblocking": 8051,
      "37": 8052,
      "Ġpdf": 8053,
      "usr": 8054,
      "Calculates": 8055,
      "Rel": 8056,
      "Ġhold": 8057,
      "shard": 8058,
      "Ġticket": 8059,
      "07": 8060,
      "HI": 8061,
      "))]": 8062,
      "Ġroutes": 8063,
      "ĠUsing": 8064,
      "Ġupdating": 8065,
      "Policy": 8066,
      "NI": 8067,
      "Ġfinish": 8068,
      "Ġ1024": 8069,
      "pixel": 8070,
      "ĠIndic": 8071,
      "Runs": 8072,
      "'d": 8073,
      "]',": 8074,
      "means": 8075,
      "Ġpersist": 8076,
      "Ġorganization": 8077,
      "ĠĠĠĠĠĠĠĠĠĠĠĠĠĠĠĠĠ": 8078,
      "lets": 8079,
      "Ġprobabilities": 8080,
      "SPACE": 8081,
      "ExecutionError": 8082,
      "mx": 8083,
      "Ġjo": 8084,
      "Ġrename": 8085,
      "ripts": 8086,
      "Ġhad": 8087,
      "Ġendpoints": 8088,
      "Ġindicator": 8089,
      "Ġcoverage": 8090,
      "ĠASCII": 8091,
      "beat": 8092,
      "Computes": 8093,
      "Ġderivative": 8094,
      ":\"": 8095,
      "Post": 8096,
      "Ġemit": 8097,
      "quared": 8098,
      "Ġsudo": 8099,
      "Ġcommunic": 8100,
      "ocus": 8101,
      "Ġvisit": 8102,
      "ificant": 8103,
      "ik": 8104,
      "deg": 8105,
      "transition": 8106,
      "Ġflu": 8107,
      "specified": 8108,
      "Ġfluxes": 8109,
      "Ġfu": 8110,
      "checks": 8111,
      "transpose": 8112,
      "AUTH": 8113,
      "And": 8114,
      "MC": 8115,
      "fied": 8116,
      "listen": 8117,
      "quant": 8118,
      "Ġpreserve": 8119,
      "genome": 8120,
      "encoder": 8121,
      "sdk": 8122,
      "=',": 8123,
      "ĠSu": 8124,
      "processes": 8125,
      "queryset": 8126,
      "Pos": 8127,
      "Position": 8128,
      "ev": 8129,
      "detail": 8130,
      "peg": 8131,
      "pread": 8132,
      "Local": 8133,
      "Ġverbosity": 8134,
      "NotExist": 8135,
      "Ġscopes": 8136,
      "ĠUTF": 8137,
      "Op": 8138,
      "Takes": 8139,
      "lest": 8140,
      "Ġcss": 8141,
      "lace": 8142,
      "ĠOAuth": 8143,
      "leton": 8144,
      "ALI": 8145,
      "city": 8146,
      "ĠFlag": 8147,
      "Ġcombine": 8148,
      "hooks": 8149,
      "Ġrepeat": 8150,
      "angular": 8151,
      "ĠExtra": 8152,
      "Ġextend": 8153,
      "ĠColor": 8154,
      "Ġneighbor": 8155,
      "za": 8156,
      "Ġinfer": 8157,
      "Ġlisting": 8158,
      "taint": 8159,
      "Ġ------------": 8160,
      "ĠAND": 8161,
      "Ġdeta": 8162,
      "Ġfaster": 8163,
      "enchmark": 8164,
      "raries": 8165,
      "Ġaff": 8166,
      "localhost": 8167,
      "Ġvariants": 8168,
      "Ġ90": 8169,
      "Close": 8170,
      "Ġrepos": 8171,
      "ctl": 8172,
      "roke": 8173,
      "ĠCF": 8174,
      "apps": 8175,
      "ifies": 8176,
      "crypto": 8177,
      "zer": 8178,
      "ĠRef": 8179,
      "ĠSFrame": 8180,
      "clone": 8181,
      "Ġtranslate": 8182,
      "Account": 8183,
      "ĠBu": 8184,
      "Ġdependent": 8185,
      "Ġesc": 8186,
      "ĠDet": 8187,
      "Ġbases": 8188,
      "Web": 8189,
      ")+": 8190,
      "BY": 8191,
      "Ġeg": 8192,
      "team": 8193,
      "Ġ[('": 8194,
      "Ġitertools": 8195,
      "Ġembedded": 8196,
      "Sc": 8197,
      "Allow": 8198,
      "gateway": 8199,
      "Ġdims": 8200,
      "ased": 8201,
      "({\"": 8202,
      "Stack": 8203,
      "ĠFAST": 8204,
      "Ġnamespaces": 8205,
      "Ġwrites": 8206,
      "confirm": 8207,
      "ĠPoint": 8208,
      "Ġclause": 8209,
      "transfer": 8210,
      "Ġlocally": 8211,
      "kipedia": 8212,
      "000000": 8213,
      "Window": 8214,
      "Ġending": 8215,
      "genes": 8216,
      "ĠImplemented": 8217,
      "ĠPerform": 8218,
      "authorization": 8219,
      "Ġtrajectory": 8220,
      "generic": 8221,
      "ĠTimeout": 8222,
      "alignment": 8223,
      "incipal": 8224,
      "EP": 8225,
      "ttl": 8226,
      "ORY": 8227,
      "Ġlegend": 8228,
      "ĠGeo": 8229,
      "LY": 8230,
      "Ġtaking": 8231,
      "Ġfrequencies": 8232,
      "Ġdx": 8233,
      "Ġunused": 8234,
      "__[": 8235,
      "ĠREST": 8236,
      ":**": 8237,
      "Ġwx": 8238,
      "leting": 8239,
      "symbols": 8240,
      "ĠComm": 8241,
      "expanduser": 8242,
      "Ġbootstrap": 8243,
      "pickle": 8244,
      "94": 8245,
      "ĠPDF": 8246,
      "Ġconfigurations": 8247,
      "::-": 8248,
      "Ġmolecule": 8249,
      "iodic": 8250,
      "matching": 8251,
      "general": 8252,
      "FFFF": 8253,
      "Ġvertical": 8254,
      "Http": 8255,
      "Ġdns": 8256,
      "Ġstudent": 8257,
      "Hub": 8258,
      "gres": 8259,
      "Ġtur": 8260,
      "Ġthus": 8261,
      "mails": 8262,
      "ĠJo": 8263,
      "1234": 8264,
      "Ġreceiver": 8265,
      "Ġstores": 8266,
      "Ġrepeated": 8267,
      "Ġdeployment": 8268,
      "Ġtb": 8269,
      "...,": 8270,
      "ĠOPTION": 8271,
      "inspect": 8272,
      "WT": 8273,
      "mtime": 8274,
      "Ġ{:": 8275,
      "Sto": 8276,
      "Ġack": 8277,
      "Ġrem": 8278,
      "Ġdiscrete": 8279,
      "temperature": 8280,
      "Ġstopped": 8281,
      "difference": 8282,
      "ale": 8283,
      "ĠAccess": 8284,
      "ĠCIM": 8285,
      "Ġ500": 8286,
      "Ġlocator": 8287,
      "/#": 8288,
      "ping": 8289,
      "mega": 8290,
      "ances": 8291,
      "Ġletter": 8292,
      "surface": 8293,
      "Assign": 8294,
      "gence": 8295,
      "xies": 8296,
      "Ġdead": 8297,
      "Ġquick": 8298,
      "backup": 8299,
      "sgi": 8300,
      "Enabled": 8301,
      "++": 8302,
      "fits": 8303,
      "world": 8304,
      "Unit": 8305,
      "Ġpublished": 8306,
      "Ġaccounts": 8307,
      "ĠValidate": 8308,
      "Ġhappens": 8309,
      "Ġnor": 8310,
      "ulary": 8311,
      "ĠPl": 8312,
      "Ġcharset": 8313,
      "TEMP": 8314,
      "ĠMinimum": 8315,
      "Ġcv": 8316,
      "Ġnumerical": 8317,
      "Ġhashes": 8318,
      "Ġplus": 8319,
      "filenames": 8320,
      "ĠSerial": 8321,
      "Ġur": 8322,
      "Ġencrypt": 8323,
      "timezone": 8324,
      "Ġleave": 8325,
      "lengths": 8326,
      "monitor": 8327,
      "Ġhashlib": 8328,
      "ĠUseful": 8329,
      "Random": 8330,
      "WARNING": 8331,
      "finished": 8332,
      "extent": 8333,
      "Ġprob": 8334,
      "Ġuploaded": 8335,
      "Ġcontainers": 8336,
      "Storage": 8337,
      "represent": 8338,
      "room": 8339,
      "integr": 8340,
      "ĠMO": 8341,
      "Ġcanvas": 8342,
      "rune": 8343,
      "offsets": 8344,
      "Ġaligned": 8345,
      "notes": 8346,
      "likelihood": 8347,
      "notebook": 8348,
      "ĠStopIteration": 8349,
      "Ġskipped": 8350,
      "scipy": 8351,
      "ĊĠĠĠĠĠĠĠĠĠĠĠĠĠĠĠĠĠĠĠĠĠĠĠĠĠĠĠĠĠĠĠĠĠĠĠĠĠĠĠĠĠĠĠĠĠĠĠĠĠĠ": 8352,
      "initialized": 8353,
      "aw": 8354,
      "Ġdummy": 8355,
      "([(": 8356,
      "Ġexpiration": 8357,
      "separator": 8358,
      "WORD": 8359,
      "interfaces": 8360,
      "overflow": 8361,
      "ĠFIXME": 8362,
      "tor": 8363,
      "assed": 8364,
      "ĠEC": 8365,
      "Ġlaunch": 8366,
      "UND": 8367,
      "lstrip": 8368,
      "tb": 8369,
      "amel": 8370,
      ":],": 8371,
      "Script": 8372,
      "precation": 8373,
      "filtered": 8374,
      "hexdigest": 8375,
      "fq": 8376,
      "Ġ%}": 8377,
      "illing": 8378,
      "haz": 8379,
      "speci": 8380,
      "SUB": 8381,
      ")\",": 8382,
      "><": 8383,
      "Sample": 8384,
      "Wrap": 8385,
      "critical": 8386,
      "Ġgate": 8387,
      "Ġliteral": 8388,
      "ĠNothing": 8389,
      "charge": 8390,
      "Role": 8391,
      "Ġconcaten": 8392,
      "allen": 8393,
      "Ġsubclasses": 8394,
      "Ġalphabet": 8395,
      "Ġrenderer": 8396,
      "ython": 8397,
      "Ġmp": 8398,
      "ĠAfter": 8399,
      "Ġ{!": 8400,
      "Attempt": 8401,
      "54": 8402,
      "Batch": 8403,
      "zh": 8404,
      "ĠWait": 8405,
      "partitions": 8406,
      "Now": 8407,
      "ä¸": 8408,
      "Ġunexpected": 8409,
      "Ġstructures": 8410,
      "=\"\",": 8411,
      "proj": 8412,
      "probab": 8413,
      "usted": 8414,
      "noun": 8415,
      "Assessment": 8416,
      "Ġquantity": 8417,
      "icipant": 8418,
      "Ġaz": 8419,
      "Ġ(_": 8420,
      "Ġthumbnail": 8421,
      "Ġapplying": 8422,
      "(%": 8423,
      "tm": 8424,
      "Ġsuggest": 8425,
      "rogram": 8426,
      "Ġ{%": 8427,
      "Ġexported": 8428,
      "Dep": 8429,
      "Sec": 8430,
      "Ġfoot": 8431,
      "Ġtopology": 8432,
      "ried": 8433,
      "mous": 8434,
      "Current": 8435,
      "uli": 8436,
      "vailable": 8437,
      "ĠNDArray": 8438,
      "TRI": 8439,
      "Ġslow": 8440,
      "Ġdeci": 8441,
      "avg": 8442,
      "Loop": 8443,
      "Ġrequirement": 8444,
      "Ġaggregation": 8445,
      "trial": 8446,
      "atural": 8447,
      "saved": 8448,
      "Ġpayment": 8449,
      "Ġ()": 8450,
      "Ġmechanism": 8451,
      "Ġexecuting": 8452,
      "Ġbuilding": 8453,
      "Ġsimilarity": 8454,
      "Cor": 8455,
      "solver": 8456,
      "Ġcolour": 8457,
      "Ġcontour": 8458,
      "without": 8459,
      "Ġdirname": 8460,
      "ACHE": 8461,
      "sterior": 8462,
      "Ġplaceholder": 8463,
      "windows": 8464,
      "mant": 8465,
      "ply": 8466,
      "('#": 8467,
      "Ġsymlink": 8468,
      "Ġnonce": 8469,
      "Ġdecoder": 8470,
      "Ġconverter": 8471,
      "vectors": 8472,
      "implemented": 8473,
      "predicate": 8474,
      "My": 8475,
      "arrow": 8476,
      "ift": 8477,
      "ITS": 8478,
      "URCE": 8479,
      "Pop": 8480,
      "Report": 8481,
      "DOC": 8482,
      "96": 8483,
      "WOR": 8484,
      "Ġ^": 8485,
      "Ġtensors": 8486,
      "Ġask": 8487,
      "Ġ17": 8488,
      "streams": 8489,
      "Ġinterpreted": 8490,
      "Ġactivation": 8491,
      "ĠNumPy": 8492,
      "aring": 8493,
      "\":\"": 8494,
      "Ġlive": 8495,
      "Ġexecutor": 8496,
      "Ġclosing": 8497,
      "=''):": 8498,
      "UB": 8499,
      "reat": 8500,
      "ffic": 8501,
      "Ġexposure": 8502,
      "mkdir": 8503,
      "ota": 8504,
      "Ġoutcome": 8505,
      "magic": 8506,
      "Ġaggregate": 8507,
      "hdr": 8508,
      "nasa": 8509,
      "Ġreserved": 8510,
      "quee": 8511,
      "Expected": 8512,
      "udit": 8513,
      "Ġsorting": 8514,
      "Deletes": 8515,
      "tests": 8516,
      "Unsupported": 8517,
      "pag": 8518,
      "Ġdevelo": 8519,
      "Ġapps": 8520,
      "Ġinteractive": 8521,
      "Ġoptimization": 8522,
      "longitude": 8523,
      ">\"": 8524,
      "concatenate": 8525,
      "contrib": 8526,
      "Ġperson": 8527,
      "ĠShow": 8528,
      "revision": 8529,
      "Ġfun": 8530,
      "Ġcredential": 8531,
      "Ġindexing": 8532,
      "rmware": 8533,
      "DoesNotExist": 8534,
      "Hist": 8535,
      "Ġdigit": 8536,
      "ĠFlask": 8537,
      "ĠMapping": 8538,
      "Replace": 8539,
      "Ġimplicit": 8540,
      "DELETE": 8541,
      "SSL": 8542,
      "Mon": 8543,
      "Ġfits": 8544,
      "Ġretain": 8545,
      "Ġvcf": 8546,
      "ĠHDF": 8547,
      "perties": 8548,
      "ĠKE": 8549,
      "Ġauthenticate": 8550,
      "Ġtyping": 8551,
      "kg": 8552,
      "station": 8553,
      "Ġann": 8554,
      "Ġ...,": 8555,
      "Plugin": 8556,
      "Ġascending": 8557,
      "Font": 8558,
      "KEN": 8559,
      "Var": 8560,
      "Ġnotify": 8561,
      "ĠPa": 8562,
      "ĠWHERE": 8563,
      "variants": 8564,
      "Entity": 8565,
      "ĠHttpResponse": 8566,
      "atively": 8567,
      "Ġins": 8568,
      "asc": 8569,
      "ĠPID": 8570,
      "buff": 8571,
      "Ġsplits": 8572,
      "keh": 8573,
      "Ġimportant": 8574,
      "Ġtransforms": 8575,
      "normalized": 8576,
      "PREFIX": 8577,
      "GU": 8578,
      "sampling": 8579,
      "ym": 8580,
      "Ġquadratic": 8581,
      "Settings": 8582,
      "BASE": 8583,
      "Ġatt": 8584,
      "ĠâĶ": 8585,
      "Ġ'$": 8586,
      "ĠSO": 8587,
      "cade": 8588,
      "rv": 8589,
      "illa": 8590,
      "ĠBad": 8591,
      "nor": 8592,
      "Ġwater": 8593,
      "lax": 8594,
      "levation": 8595,
      "Ġdetector": 8596,
      "'{": 8597,
      "gw": 8598,
      "Ġthird": 8599,
      ".:": 8600,
      "pillar": 8601,
      "Ġupgrade": 8602,
      "Ġstripped": 8603,
      "Ġdc": 8604,
      "Ġshutdown": 8605,
      "Ġflush": 8606,
      "character": 8607,
      "ĠDocker": 8608,
      "Ġoverridden": 8609,
      "Empty": 8610,
      "PN": 8611,
      "igs": 8612,
      "jpl": 8613,
      "mg": 8614,
      "sla": 8615,
      "Ġfrozen": 8616,
      "Ġna": 8617,
      "working": 8618,
      "Tool": 8619,
      "Ġdiagonal": 8620,
      "decorator": 8621,
      "Section": 8622,
      "azard": 8623,
      "vanced": 8624,
      "Ġgl": 8625,
      "Ġgiving": 8626,
      "ĠNet": 8627,
      "curr": 8628,
      "udy": 8629,
      "Ġcleaned": 8630,
      "Ġsubsequent": 8631,
      "CLI": 8632,
      "PORT": 8633,
      "Ġwind": 8634,
      "consumer": 8635,
      "Ġrunner": 8636,
      "ĠSelect": 8637,
      "contact": 8638,
      "Ġencryption": 8639,
      "species": 8640,
      "Ġprojects": 8641,
      "kill": 8642,
      "nick": 8643,
      "Ġmarkers": 8644,
      "mallest": 8645,
      "2010": 8646,
      "Ġfaces": 8647,
      "assignment": 8648,
      "Ġinherit": 8649,
      "Ġconsum": 8650,
      "phan": 8651,
      "ĠCommandExecutionError": 8652,
      "Ġfin": 8653,
      "Ġec": 8654,
      "ĠRemoves": 8655,
      "Ġsystems": 8656,
      "Ġcurrency": 8657,
      "rem": 8658,
      "Ġaws": 8659,
      "cay": 8660,
      "Setup": 8661,
      "/',": 8662,
      "Ġrb": 8663,
      "submission": 8664,
      "Ġmock": 8665,
      "hours": 8666,
      ")**": 8667,
      "500": 8668,
      "Bin": 8669,
      "dns": 8670,
      "loor": 8671,
      "ament": 8672,
      "defs": 8673,
      "cspice": 8674,
      "directories": 8675,
      "secure": 8676,
      "mig": 8677,
      "parallel": 8678,
      "ĠRandom": 8679,
      "setLevel": 8680,
      "pared": 8681,
      "Ġlex": 8682,
      "checksum": 8683,
      "Ġcontinuous": 8684,
      "Ġpopulate": 8685,
      "Builds": 8686,
      "Root": 8687,
      "[_": 8688,
      "dings": 8689,
      "ĠEX": 8690,
      "Ġfunctionality": 8691,
      "Ġcompared": 8692,
      "registered": 8693,
      "Ġmanaged": 8694,
      "execution": 8695,
      "9999": 8696,
      "Ġipv": 8697,
      "]'": 8698,
      "tip": 8699,
      "sensus": 8700,
      "leaf": 8701,
      "Ġconvenience": 8702,
      "ĠShape": 8703,
      "ĠBack": 8704,
      "Ġflask": 8705,
      "digits": 8706,
      "%%": 8707,
      "Clean": 8708,
      "SB": 8709,
      "trip": 8710,
      "}\")": 8711,
      "Ġinvert": 8712,
      "ĠTCP": 8713,
      "updates": 8714,
      "exact": 8715,
      "circ": 8716,
      "ĠDep": 8717,
      "START": 8718,
      "Ġdatatype": 8719,
      "factors": 8720,
      "ARE": 8721,
      "rapping": 8722,
      "Ġhyp": 8723,
      "))))": 8724,
      "domains": 8725,
      "binding": 8726,
      "ntaxError": 8727,
      "ĠHelper": 8728,
      "LATE": 8729,
      "Ġste": 8730,
      "Ġ``.": 8731,
      "allback": 8732,
      "Ġ</": 8733,
      "mapper": 8734,
      "128": 8735,
      "yes": 8736,
      "{'": 8737,
      "hello": 8738,
      "Ġfake": 8739,
      "ĠSec": 8740,
      "prod": 8741,
      "Ġaren": 8742,
      "shapes": 8743,
      "retcode": 8744,
      "COMP": 8745,
      "inux": 8746,
      "getcwd": 8747,
      "ĠET": 8748,
      "moving": 8749,
      "Keep": 8750,
      "Ġ40": 8751,
      "Ġadapt": 8752,
      "Ġremain": 8753,
      "Ġelect": 8754,
      "unused": 8755,
      "Ġhits": 8756,
      "ĠBig": 8757,
      "...)": 8758,
      "Ġconstructed": 8759,
      "GS": 8760,
      "tn": 8761,
      "Ġ`.": 8762,
      "ĠModule": 8763,
      "Ġversionchanged": 8764,
      "trim": 8765,
      "cuit": 8766,
      "onymous": 8767,
      "Ġdaily": 8768,
      "Ġaccuracy": 8769,
      "Ġpasses": 8770,
      "ĠCopy": 8771,
      "ĠProject": 8772,
      "nowledge": 8773,
      "UNT": 8774,
      "border": 8775,
      "Ġinc": 8776,
      "Ġtodo": 8777,
      "ulator": 8778,
      "Ġ\"__": 8779,
      "))[": 8780,
      "ĠPort": 8781,
      "ĠGaussian": 8782,
      "urity": 8783,
      "ĠMI": 8784,
      "legend": 8785,
      "42": 8786,
      "EV": 8787,
      "Flag": 8788,
      "rn": 8789,
      "ĠDimension": 8790,
      "mtree": 8791,
      "Ġepsilon": 8792,
      "MB": 8793,
      "wind": 8794,
      "ulus": 8795,
      "should": 8796,
      "oral": 8797,
      "arc": 8798,
      "ĠCalled": 8799,
      "ashboard": 8800,
      "ĠChannel": 8801,
      "develo": 8802,
      "ctypes": 8803,
      "ĠDNS": 8804,
      "ĠEl": 8805,
      "sentence": 8806,
      "ĠReplace": 8807,
      "Ġmouse": 8808,
      "HTTPError": 8809,
      "DateTime": 8810,
      "ĠAccount": 8811,
      "Ġttl": 8812,
      "iline": 8813,
      "mplitude": 8814,
      "Ġperforms": 8815,
      ":\",": 8816,
      "ares": 8817,
      "tw": 8818,
      "learning": 8819,
      "Ġinferred": 8820,
      "Ġincorrect": 8821,
      "agg": 8822,
      "caller": 8823,
      "going": 8824,
      "Ġ'-'": 8825,
      "ĠApply": 8826,
      "tzinfo": 8827,
      "ĠOverride": 8828,
      "hit": 8829,
      "datastore": 8830,
      "Ġscripts": 8831,
      "Definition": 8832,
      "Ġsubstitution": 8833,
      "Shape": 8834,
      "references": 8835,
      "Ġprom": 8836,
      "Ġbranches": 8837,
      "Ġelapsed": 8838,
      "Ġcorrection": 8839,
      "Ġcorpus": 8840,
      "Ġ404": 8841,
      "Ġapproximate": 8842,
      "Sort": 8843,
      "sensor": 8844,
      "ĠâĢ": 8845,
      "gate": 8846,
      "Ġpat": 8847,
      "Ġnice": 8848,
      "produ": 8849,
      "__:": 8850,
      "ĠBEL": 8851,
      "Ġ36": 8852,
      "LIST": 8853,
      "Prefix": 8854,
      "neighbors": 8855,
      "ĠDescription": 8856,
      "upt": 8857,
      "ĊĊĠĠĠĠĠĠĠĠ": 8858,
      "ĠLook": 8859,
      "Ġtriggered": 8860,
      "Ġpurposes": 8861,
      "Ġbond": 8862,
      "problem": 8863,
      "Ġmoving": 8864,
      "Ġinternally": 8865,
      "Finds": 8866,
      "Ġslices": 8867,
      "Verify": 8868,
      "Ġtheme": 8869,
      "mainder": 8870,
      "ouble": 8871,
      "Ġ400": 8872,
      "LIB": 8873,
      "Ġreports": 8874,
      "/<": 8875,
      ":\")": 8876,
      "Ġcpu": 8877,
      "Ġforms": 8878,
      "definitions": 8879,
      "objs": 8880,
      "Ġunders": 8881,
      "Ġphysical": 8882,
      "Iterate": 8883,
      "Ġeffective": 8884,
      "Ġresidual": 8885,
      "ĠRedis": 8886,
      "batches": 8887,
      "density": 8888,
      "ook": 8889,
      "remaining": 8890,
      "Ġ'\"": 8891,
      "Ġvpc": 8892,
      "ĠItem": 8893,
      "ĠRFC": 8894,
      "endpoints": 8895,
      "Ġrs": 8896,
      "compare": 8897,
      "ATOR": 8898,
      "Ġthreading": 8899,
      "Ġacceptable": 8900,
      "Ġcapacity": 8901,
      "velope": 8902,
      "Ġdynam": 8903,
      "Ġmilliseconds": 8904,
      "Ġgzip": 8905,
      "ailability": 8906,
      "subscribe": 8907,
      "Ġpolynomial": 8908,
      "Ġnl": 8909,
      "Ġmi": 8910,
      "keyid": 8911,
      "Ġkill": 8912,
      "Ġgreen": 8913,
      "secut": 8914,
      "Ġsci": 8915,
      "ĠInclude": 8916,
      "Component": 8917,
      "HTML": 8918,
      "Ġdescribe": 8919,
      "Ġsanit": 8920,
      "utit": 8921,
      "Ġorientation": 8922,
      "Ġ23": 8923,
      "ĠExt": 8924,
      "maybe": 8925,
      "ĠWhich": 8926,
      "Ġ/=": 8927,
      "Ġscenario": 8928,
      "ĠChange": 8929,
      "Authorization": 8930,
      "VAR": 8931,
      "Writer": 8932,
      "Ġtorch": 8933,
      "pex": 8934,
      "readable": 8935,
      "Ġsampled": 8936,
      "Upload": 8937,
      "Ġbecomes": 8938,
      "Ob": 8939,
      "routing": 8940,
      "tolist": 8941,
      "certificate": 8942,
      "Ġexpires": 8943,
      "randint": 8944,
      "':'": 8945,
      "pat": 8946,
      "Ġsaving": 8947,
      "umor": 8948,
      "acc": 8949,
      "Ġartist": 8950,
      "globals": 8951,
      "ai": 8952,
      "stri": 8953,
      "Ġcn": 8954,
      "ilation": 8955,
      "Ġgran": 8956,
      "``).": 8957,
      "Project": 8958,
      "overwrite": 8959,
      "Att": 8960,
      "\\_": 8961,
      "fm": 8962,
      "atever": 8963,
      "('')": 8964,
      "Ġkwarg": 8965,
      "Ġsense": 8966,
      "Ġlicense": 8967,
      "atar": 8968,
      "ffff": 8969,
      "tenant": 8970,
      "Ġ2015": 8971,
      ":',": 8972,
      "oser": 8973,
      "tur": 8974,
      "repos": 8975,
      "Ġlattice": 8976,
      "Ġprofiles": 8977,
      "ĠDownload": 8978,
      "Reset": 8979,
      "lapse": 8980,
      "Ġoptimizer": 8981,
      "Ġdrawn": 8982,
      "Ġsheet": 8983,
      "Ġboundaries": 8984,
      "_):": 8985,
      "mongo": 8986,
      "ĠAction": 8987,
      "Ġlittle": 8988,
      "(\"'": 8989,
      "ĠUpdates": 8990,
      "ArgumentParser": 8991,
      "ĠGraphQL": 8992,
      "*\\": 8993,
      "PG": 8994,
      "Ġls": 8995,
      ")')": 8996,
      "kv": 8997,
      "Ġsink": 8998,
      "ĠSample": 8999,
      "(\",": 9000,
      "Ġcompiler": 9001,
      "Ġlazy": 9002,
      "Ġdestroy": 9003,
      "smoot": 9004,
      "ann": 9005,
      "hain": 9006,
      "actual": 9007,
      "Ġimpro": 9008,
      "Ġperiods": 9009,
      "afka": 9010,
      "Ġvelocity": 9011,
      "atalog": 9012,
      "Ġinvoke": 9013,
      "ĠSD": 9014,
      "Ġsessions": 9015,
      "Ġrecipe": 9016,
      "Space": 9017,
      "ĠPos": 9018,
      "Ġmaterial": 9019,
      "terminal": 9020,
      "Ġscheduled": 9021,
      "Bar": 9022,
      "vpc": 9023,
      "ĊĊĠĠĠĠĠĠĠĠĠĠĠĠĠĠĠĠĠĠĠĠĠĠĠ": 9024,
      "orders": 9025,
      "ĠOK": 9026,
      "tains": 9027,
      "Ġenter": 9028,
      "ROOT": 9029,
      "void": 9030,
      "Ġtransactions": 9031,
      "Ġcollected": 9032,
      "CATION": 9033,
      "Factor": 9034,
      "aux": 9035,
      "decoder": 9036,
      "Ġ256": 9037,
      "Recurs": 9038,
      "Ġbehaviour": 9039,
      "Ġâİ": 9040,
      "hint": 9041,
      "Ġtau": 9042,
      "rift": 9043,
      "Ġintersect": 9044,
      "Analysis": 9045,
      "Ġwebsocket": 9046,
      "Ġflattened": 9047,
      "spection": 9048,
      "Ġnetworks": 9049,
      "Ġ\"\".": 9050,
      "Ġglobals": 9051,
      "Move": 9052,
      "Ġorgan": 9053,
      "FLAGS": 9054,
      "recursive": 9055,
      "_=": 9056,
      "native": 9057,
      "alo": 9058,
      "isation": 9059,
      "Ġparagraph": 9060,
      "pie": 9061,
      "Ġminute": 9062,
      "Identifier": 9063,
      "127": 9064,
      "Ġmixed": 9065,
      "repeat": 9066,
      "cus": 9067,
      "jar": 9068,
      "reload": 9069,
      "resolution": 9070,
      "REC": 9071,
      "Files": 9072,
      "Ġ:,": 9073,
      "Ġground": 9074,
      "Ġhazard": 9075,
      "Ġunchanged": 9076,
      "Protocol": 9077,
      "Med": 9078,
      "lored": 9079,
      "Ġgateway": 9080,
      "Ġlanguages": 9081,
      "prot": 9082,
      "ĠHE": 9083,
      "started": 9084,
      "Ġimports": 9085,
      "Ġverification": 9086,
      "between": 9087,
      "Ġcs": 9088,
      "Ġct": 9089,
      "limin": 9090,
      "Ġresol": 9091,
      "Alchemy": 9092,
      "BB": 9093,
      "_[": 9094,
      "zon": 9095,
      "Ġarc": 9096,
      "completion": 9097,
      "Export": 9098,
      "Segment": 9099,
      "Ġradians": 9100,
      "Ġrespective": 9101,
      "ĠHere": 9102,
      "Axes": 9103,
      "CR": 9104,
      "coin": 9105,
      "Ġtopics": 9106,
      "Grade": 9107,
      "Ġcampaign": 9108,
      "Ġray": 9109,
      "Ġverb": 9110,
      "SOURCE": 9111,
      "Ġbam": 9112,
      "Ġeq": 9113,
      "Ġmargin": 9114,
      "istant": 9115,
      "ĠMon": 9116,
      "Ġdescend": 9117,
      "CACHE": 9118,
      "QA": 9119,
      "pretty": 9120,
      "Ġhealth": 9121,
      "ĠConnect": 9122,
      "special": 9123,
      "=[],": 9124,
      "cipher": 9125,
      "Ġhighlight": 9126,
      "(\"\"": 9127,
      "Ġiso": 9128,
      "gradient": 9129,
      "workspace": 9130,
      "^\\": 9131,
      "Ġsky": 9132,
      "covered": 9133,
      "Ġcorner": 9134,
      "123": 9135,
      "ĠApplication": 9136,
      "mf": 9137,
      "stable": 9138,
      "Ġevidence": 9139,
      "Ġlease": 9140,
      "Prepare": 9141,
      "ĠValidationError": 9142,
      "Ġnotifications": 9143,
      "Ġlegacy": 9144,
      "CD": 9145,
      "ech": 9146,
      "square": 9147,
      "Ġviews": 9148,
      "fragment": 9149,
      "activate": 9150,
      "Ġsmooth": 9151,
      "tun": 9152,
      "Ġstar": 9153,
      "lementation": 9154,
      "Style": 9155,
      "Ġprefixes": 9156,
      "ĊĠĠĠĠĠĠĠĠĠĠĠĠĠĠĠĠĠĠĠĠĠĠĠĠĠĠĠĠĠĠĠĠĠĠĠĠĠĠĠĠĠĠĠĠĠĠĠĠĠĠĠĠ": 9157,
      "ĊĠĠĠĠĠĠĠĠĠĠĠĠĠĠĠĠĠĠĠĠĠĠĠĠĠĠĠĠĠĠĠĠĠĠĠĠĠĠĠĠĠĠĠĠĠĠĠĠĠĠĠĠĠ": 9158,
      "sses": 9159,
      "alg": 9160,
      "TT": 9161,
      "irect": 9162,
      "pies": 9163,
      "Ġoverall": 9164,
      "Ġcenters": 9165,
      "ĠThat": 9166,
      "itect": 9167,
      "Ġmutation": 9168,
      "inspace": 9169,
      "blank": 9170,
      "Ġwidgets": 9171,
      "={},": 9172,
      "Ġmaintain": 9173,
      "pline": 9174,
      "feat": 9175,
      "shutdown": 9176,
      "URN": 9177,
      "$',": 9178,
      ".+": 9179,
      "NUM": 9180,
      "whe": 9181,
      "ConnectionError": 9182,
      "Ġtypically": 9183,
      "macro": 9184,
      "Accept": 9185,
      "FOR": 9186,
      "Ġ'+": 9187,
      "Ġrr": 9188,
      "ĠJava": 9189,
      "marks": 9190,
      "Ġhooks": 9191,
      "Ġfactors": 9192,
      "Ġhardware": 9193,
      "Offset": 9194,
      "rees": 9195,
      "Ġreject": 9196,
      "numer": 9197,
      "bases": 9198,
      "ĠInternal": 9199,
      "Ġcalibration": 9200,
      "âĶĢâĶĢâĶĢâĶĢ": 9201,
      "received": 9202,
      "Package": 9203,
      "')))": 9204,
      "Ġbc": 9205,
      "ĠView": 9206,
      "minor": 9207,
      "groupby": 9208,
      "Ġattention": 9209,
      "Ġtreat": 9210,
      "hub": 9211,
      "around": 9212,
      "ategory": 9213,
      "fobj": 9214,
      "calar": 9215,
      "999": 9216,
      "ParseError": 9217,
      "Ġtranslated": 9218,
      "eper": 9219,
      "Ġclassifier": 9220,
      "Ġsigning": 9221,
      "median": 9222,
      "Ġsecondary": 9223,
      "large": 9224,
      "rsplit": 9225,
      "(\"_": 9226,
      "ariant": 9227,
      "ĠHost": 9228,
      "matched": 9229,
      "CHAR": 9230,
      "Ġappears": 9231,
      "Pi": 9232,
      "front": 9233,
      "ĠMongo": 9234,
      "ayload": 9235,
      "Ġoperators": 9236,
      "ĠCount": 9237,
      "ĠWhere": 9238,
      "initialize": 9239,
      "gradebook": 9240,
      "Ġintegration": 9241,
      "Ġplotted": 9242,
      "Ġpast": 9243,
      "ANCE": 9244,
      "Ġobserver": 9245,
      "bon": 9246,
      "middle": 9247,
      "listener": 9248,
      "ĠĠĠĠĠĠĠĠĠĠĠĠĠĠĠĠĠĠĠĠĠĠĠ": 9249,
      "Ġiteritems": 9250,
      "cleot": 9251,
      "SubElement": 9252,
      "Ġ([": 9253,
      "Ġhint": 9254,
      "oute": 9255,
      "Ġ...]": 9256,
      "interpol": 9257,
      "Ġshapes": 9258,
      "Ġchromosome": 9259,
      "Main": 9260,
      "Scan": 9261,
      "ĠRow": 9262,
      "ĠSplit": 9263,
      "under": 9264,
      "never": 9265,
      "Ġoverwritten": 9266,
      "herical": 9267,
      "Ġlikelihood": 9268,
      "Ġrandomly": 9269,
      "cedence": 9270,
      "Iterable": 9271,
      "Ġ\"{}\"": 9272,
      "Ġamplitude": 9273,
      "clients": 9274,
      "Ġloads": 9275,
      "hashes": 9276,
      "rfc": 9277,
      "ĠMatch": 9278,
      "ĠSection": 9279,
      "scriptors": 9280,
      "itories": 9281,
      "hierarchy": 9282,
      "secutive": 9283,
      "Ġcube": 9284,
      "resolved": 9285,
      "ĠPY": 9286,
      "ĠNAME": 9287,
      "ĠLink": 9288,
      "Ġleader": 9289,
      "Ġ{}:": 9290,
      "ATED": 9291,
      "describe": 9292,
      "Ġscaled": 9293,
      "}',": 9294,
      "ĠBut": 9295,
      "player": 9296,
      "trunc": 9297,
      "upy": 9298,
      "Look": 9299,
      "JLink": 9300,
      "OM": 9301,
      "how": 9302,
      "encryption": 9303,
      "anza": 9304,
      "ĠSkip": 9305,
      "artbeat": 9306,
      "timeseries": 9307,
      "daemon": 9308,
      "Ġoccurrence": 9309,
      "ball": 9310,
      "Ġoauth": 9311,
      "resolver": 9312,
      "Ġ00": 9313,
      "Ġxarray": 9314,
      "STATUS": 9315,
      "queeze": 9316,
      "Total": 9317,
      "Ġpp": 9318,
      "Ġinf": 9319,
      "kwds": 9320,
      "Ġhowever": 9321,
      "Ġshortcut": 9322,
      "ygons": 9323,
      "ĠGenerates": 9324,
      "but": 9325,
      "don": 9326,
      "vfs": 9327,
      "Ġsong": 9328,
      "ĠSP": 9329,
      "monic": 9330,
      "Encode": 9331,
      "Ġstops": 9332,
      "expires": 9333,
[...]
